{
  "version": "1.0",
  "truncation": null,
  "padding": null,
  "added_tokens": [
    {
      "id": 0,
      "content": "<unk>",
      "single_word": false,
      "lstrip": false,
      "rstrip": false,
      "normalized": false,
      "special": true
    },
    {
      "id": 1,
      "content": "<s>",
      "single_word": false,
      "lstrip": false,
      "rstrip": false,
      "normalized": false,
      "special": true
    },
    {
      "id": 2,
      "content": "</s>",
      "single_word": false,
      "lstrip": false,
      "rstrip": false,
      "normalized": false,
      "special": true
    }
  ],
  "normalizer": {
    "type": "Sequence",
    "normalizers": [
      {
        "type": "NFKC"
      },
      {
        "type": "Replace",
        "pattern": {
          "String": " "
        },
        "content": "_"
      }
    ]
  },
  "pre_tokenizer": {
    "type": "Sequence",
    "pretokenizers": [
      {
        "type": "Split",
        "pattern": {
          "Regex": "_"
        },
        "behavior": "MergedWithNext",
        "invert": false
      },
      {
        "type": "Split",
        "pattern": {
          "Regex": "\\d"
        },
        "behavior": "Isolated",
        "invert": false
      },
      {
        "type": "Split",
        "pattern": {
          "Regex": "_*(\\w+|[^\\w\\s]+)"
        },
        "behavior": "Isolated",
        "invert": false
      },
      {
        "type": "ByteLevel",
        "add_prefix_space": false,
        "trim_offsets": true,
        "use_regex": false
      }
    ]
  },
  "post_processor": null,
  "decoder": {
    "type": "Sequence",
    "decoders": [
      {
        "type": "Replace",
        "pattern": {
          "String": "_"
        },
        "content": " "
      },
      {
        "type": "ByteLevel",
        "add_prefix_space": true,
        "trim_offsets": true,
        "use_regex": true
      }
    ]
  },
  "model": {
    "type": "BPE",
    "dropout": null,
    "unk_token": "<unk>",
    "continuing_subword_prefix": null,
    "end_of_word_suffix": null,
    "fuse_unk": true,
    "byte_fallback": false,
    "vocab": {
      "<unk>": 0,
      "<s>": 1,
      "</s>": 2,
      "!": 3,
      "\"": 4,
      "#": 5,
      "$": 6,
      "%": 7,
      "&": 8,
      "'": 9,
      "(": 10,
      ")": 11,
      "*": 12,
      "+": 13,
      ",": 14,
      "-": 15,
      ".": 16,
      "/": 17,
      "0": 18,
      "1": 19,
      "2": 20,
      "3": 21,
      "4": 22,
      "5": 23,
      "6": 24,
      "7": 25,
      "8": 26,
      "9": 27,
      ":": 28,
      ";": 29,
      "<": 30,
      "=": 31,
      ">": 32,
      "?": 33,
      "@": 34,
      "A": 35,
      "B": 36,
      "C": 37,
      "D": 38,
      "E": 39,
      "F": 40,
      "G": 41,
      "H": 42,
      "I": 43,
      "J": 44,
      "K": 45,
      "L": 46,
      "M": 47,
      "N": 48,
      "O": 49,
      "P": 50,
      "Q": 51,
      "R": 52,
      "S": 53,
      "T": 54,
      "U": 55,
      "V": 56,
      "W": 57,
      "X": 58,
      "Y": 59,
      "Z": 60,
      "[": 61,
      "\\": 62,
      "]": 63,
      "^": 64,
      "_": 65,
      "`": 66,
      "a": 67,
      "b": 68,
      "c": 69,
      "d": 70,
      "e": 71,
      "f": 72,
      "g": 73,
      "h": 74,
      "i": 75,
      "j": 76,
      "k": 77,
      "l": 78,
      "m": 79,
      "n": 80,
      "o": 81,
      "p": 82,
      "q": 83,
      "r": 84,
      "s": 85,
      "t": 86,
      "u": 87,
      "v": 88,
      "w": 89,
      "x": 90,
      "y": 91,
      "z": 92,
      "{": 93,
      "|": 94,
      "}": 95,
      "~": 96,
      "¡": 97,
      "¢": 98,
      "£": 99,
      "¤": 100,
      "¥": 101,
      "¦": 102,
      "§": 103,
      "¨": 104,
      "©": 105,
      "ª": 106,
      "«": 107,
      "¬": 108,
      "®": 109,
      "¯": 110,
      "°": 111,
      "±": 112,
      "²": 113,
      "³": 114,
      "´": 115,
      "µ": 116,
      "¶": 117,
      "·": 118,
      "¸": 119,
      "¹": 120,
      "º": 121,
      "»": 122,
      "¼": 123,
      "½": 124,
      "¾": 125,
      "¿": 126,
      "À": 127,
      "Á": 128,
      "Â": 129,
      "Ã": 130,
      "Ä": 131,
      "Å": 132,
      "Æ": 133,
      "Ç": 134,
      "È": 135,
      "É": 136,
      "Ê": 137,
      "Ë": 138,
      "Ì": 139,
      "Í": 140,
      "Î": 141,
      "Ï": 142,
      "Ð": 143,
      "Ñ": 144,
      "Ò": 145,
      "Ó": 146,
      "Ô": 147,
      "Õ": 148,
      "Ö": 149,
      "×": 150,
      "Ø": 151,
      "Ù": 152,
      "Ú": 153,
      "Û": 154,
      "Ü": 155,
      "Ý": 156,
      "Þ": 157,
      "ß": 158,
      "à": 159,
      "á": 160,
      "â": 161,
      "ã": 162,
      "ä": 163,
      "å": 164,
      "æ": 165,
      "ç": 166,
      "è": 167,
      "é": 168,
      "ê": 169,
      "ë": 170,
      "ì": 171,
      "í": 172,
      "î": 173,
      "ï": 174,
      "ð": 175,
      "ñ": 176,
      "ò": 177,
      "ó": 178,
      "ô": 179,
      "õ": 180,
      "ö": 181,
      "÷": 182,
      "ø": 183,
      "ù": 184,
      "ú": 185,
      "û": 186,
      "ü": 187,
      "ý": 188,
      "þ": 189,
      "ÿ": 190,
      "Ā": 191,
      "ā": 192,
      "Ă": 193,
      "ă": 194,
      "Ą": 195,
      "ą": 196,
      "Ć": 197,
      "ć": 198,
      "Ĉ": 199,
      "ĉ": 200,
      "Ċ": 201,
      "ċ": 202,
      "Č": 203,
      "č": 204,
      "Ď": 205,
      "ď": 206,
      "Đ": 207,
      "đ": 208,
      "Ē": 209,
      "ē": 210,
      "Ĕ": 211,
      "ĕ": 212,
      "Ė": 213,
      "ė": 214,
      "Ę": 215,
      "ę": 216,
      "Ě": 217,
      "ě": 218,
      "Ĝ": 219,
      "ĝ": 220,
      "Ğ": 221,
      "ğ": 222,
      "Ġ": 223,
      "ġ": 224,
      "Ģ": 225,
      "ģ": 226,
      "Ĥ": 227,
      "ĥ": 228,
      "Ħ": 229,
      "ħ": 230,
      "Ĩ": 231,
      "ĩ": 232,
      "Ī": 233,
      "ī": 234,
      "Ĭ": 235,
      "ĭ": 236,
      "Į": 237,
      "į": 238,
      "İ": 239,
      "ı": 240,
      "Ĳ": 241,
      "ĳ": 242,
      "Ĵ": 243,
      "ĵ": 244,
      "Ķ": 245,
      "ķ": 246,
      "ĸ": 247,
      "Ĺ": 248,
      "ĺ": 249,
      "Ļ": 250,
      "ļ": 251,
      "Ľ": 252,
      "ľ": 253,
      "Ŀ": 254,
      "ŀ": 255,
      "Ł": 256,
      "ł": 257,
      "Ń": 258,
      "in": 259,
      "_a": 260,
      "on": 261,
      "_t": 262,
      "er": 263,
      "ti": 264,
      "re": 265,
      "is": 266,
      "_o": 267,
      "en": 268,
      "al": 269,
      "he": 270,
      "_c": 271,
      "_s": 272,
      "_of": 273,
      "_p": 274,
      "es": 275,
      "at": 276,
      "ed": 277,
      "ic": 278,
      "ar": 279,
      "or": 280,
      "_in": 281,
      "_the": 282,
      "an": 283,
      "ro": 284,
      "_b": 285,
      "_d": 286,
      "_m": 287,
      "_f": 288,
      "as": 289,
      "le": 290,
      "ing": 291,
      "tion": 292,
      "_an": 293,
      "it": 294,
      "_is": 295,
      "lo": 296,
      "us": 297,
      "om": 298,
      "_w": 299,
      "ul": 300,
      "os": 301,
      "_and": 302,
      "ent": 303,
      "ac": 304,
      "ve": 305,
      "ec": 306,
      "ol": 307,
      "id": 308,
      "_n": 309,
      "ation": 310,
      "ur": 311,
      "_re": 312,
      "_to": 313,
      "th": 314,
      "ly": 315,
      "_e": 316,
      "ter": 317,
      "_h": 318,
      "ll": 319,
      "ia": 320,
      "_(": 321,
      "one": 322,
      "um": 323,
      "_l": 324,
      "tr": 325,
      "ph": 326,
      "ce": 327,
      "_T": 328,
      "_th": 329,
      "un": 330,
      "ine": 331,
      "_g": 332,
      "oc": 333,
      "ith": 334,
      "em": 335,
      "am": 336,
      "_I": 337,
      "il": 338,
      "uc": 339,
      "tic": 340,
      "_with": 341,
      "_A": 342,
      "_C": 343,
      "_P": 344,
      "ut": 345,
      "od": 346,
      "ig": 347,
      "_are": 348,
      "im": 349,
      "ad": 350,
      "res": 351,
      "ag": 352,
      "ot": 353,
      "_v": 354,
      "ir": 355,
      "rom": 356,
      "_for": 357,
      "st": 358,
      "_be": 359,
      "None": 360,
      "olo": 361,
      "sing": 362,
      "_S": 363,
      "ef": 364,
      "ase": 365,
      "_or": 366,
      "_M": 367,
      "ion": 368,
      "single": 369,
      "olog": 370,
      "yp": 371,
      "_con": 372,
      "_-": 373,
      "ate": 374,
      "et": 375,
      "_as": 376,
      "op": 377,
      "_pro": 378,
      "_r": 379,
      "_by": 380,
      "ati": 381,
      "ab": 382,
      "_dis": 383,
      "_ch": 384,
      "ver": 385,
      "ure": 386,
      "ology": 387,
      "_ex": 388,
      "ay": 389,
      "low": 390,
      "ain": 391,
      "ial": 392,
      "_R": 393,
      "_com": 394,
      "ell": 395,
      "_ac": 396,
      "_H": 397,
      "est": 398,
      "ap": 399,
      "_D": 400,
      "if": 401,
      "ary": 402,
      "An": 403,
      "ated": 404,
      "_wh": 405,
      "iti": 406,
      "ich": 407,
      "ib": 408,
      "_B": 409,
      "up": 410,
      "ical": 411,
      "se": 412,
      "ost": 413,
      "_sy": 414,
      "ran": 415,
      "_de": 416,
      "ity": 417,
      "_st": 418,
      "ment": 419,
      "_he": 420,
      "ous": 421,
      "ch": 422,
      "ts": 423,
      "_se": 424,
      "_The": 425,
      "ular": 426,
      "osis": 427,
      "ulti": 428,
      "aus": 429,
      "pt": 430,
      "ue": 431,
      "_ab": 432,
      "ath": 433,
      "ub": 434,
      "mon": 435,
      "ess": 436,
      "_E": 437,
      "ff": 438,
      "_on": 439,
      "ug": 440,
      "ys": 441,
      "nd": 442,
      "ow": 443,
      "gen": 444,
      "_le": 445,
      "_fol": 446,
      "_al": 447,
      "el": 448,
      "orm": 449,
      "multi": 450,
      "_cell": 451,
      "pl": 452,
      "act": 453,
      "ition": 454,
      "ers": 455,
      "igh": 456,
      "ect": 457,
      "_us": 458,
      "qu": 459,
      "ast": 460,
      "age": 461,
      "_can": 462,
      "ill": 463,
      "end": 464,
      "ens": 465,
      "_inf": 466,
      "ant": 467,
      "_inc": 468,
      "_O": 469,
      "oma": 470,
      "ore": 471,
      "ear": 472,
      "_L": 473,
      "_N": 474,
      "_follow": 475,
      "_res": 476,
      "_at": 477,
      "_&": 478,
      "tive": 479,
      "cc": 480,
      "ud": 481,
      "iz": 482,
      "ard": 483,
      "gn": 484,
      "all": 485,
      "_sh": 486,
      "und": 487,
      "_sp": 488,
      "ery": 489,
      "te": 490,
      "_from": 491,
      "ip": 492,
      "_G": 493,
      "ge": 494,
      "_caus": 495,
      "_pres": 496,
      "ence": 497,
      "_F": 498,
      "_not": 499,
      "_In": 500,
      "_which": 501,
      "Ans": 502,
      "In": 503,
      "_following": 504,
      "_ne": 505,
      "edic": 506,
      "ents": 507,
      "ior": 508,
      "cy": 509,
      "_dise": 510,
      "ep": 511,
      "ies": 512,
      "ist": 513,
      "iv": 514,
      "ium": 515,
      "_pre": 516,
      "itis": 517,
      "_that": 518,
      "eral": 519,
      "omy": 520,
      "_tr": 521,
      "_i": 522,
      "ere": 523,
      "_per": 524,
      "ther": 525,
      "duc": 526,
      "ory": 527,
      "oid": 528,
      "reas": 529,
      "ual": 530,
      "and": 531,
      "_disease": 532,
      "las": 533,
      "Wh": 534,
      "ide": 535,
      "The": 536,
      "_pati": 537,
      "_it": 538,
      "edicine": 539,
      "_common": 540,
      "inal": 541,
      "_hyp": 542,
      "ne": 543,
      "_im": 544,
      "_ad": 545,
      "_most": 546,
      "ection": 547,
      "ren": 548,
      "ke": 549,
      "ym": 550,
      "reat": 551,
      "_y": 552,
      "av": 553,
      "ple": 554,
      "cept": 555,
      "rome": 556,
      "_may": 557,
      "ign": 558,
      "ox": 559,
      "ord": 560,
      "ors": 561,
      "_ed": 562,
      "urg": 563,
      "_k": 564,
      "rans": 565,
      "_blo": 566,
      "per": 567,
      "ight": 568,
      "ct": 569,
      "yl": 570,
      ").": 571,
      "ee": 572,
      "ndrome": 573,
      "iology": 574,
      "_cells": 575,
      "_lo": 576,
      "_ph": 577,
      "_dia": 578,
      "_Th": 579,
      "ong": 580,
      "_It": 581,
      "our": 582,
      "ormal": 583,
      "ome": 584,
      "ose": 585,
      "ive": 586,
      ".,": 587,
      "_int": 588,
      "ros": 589,
      "ra": 590,
      "_occ": 591,
      "_:": 592,
      "erm": 593,
      "_ap": 594,
      "acter": 595,
      "arc": 596,
      "ress": 597,
      "_ner": 598,
      "og": 599,
      "usc": 600,
      "oph": 601,
      "ron": 602,
      "_'": 603,
      "de": 604,
      "_syndrome": 605,
      "_ar": 606,
      "_fe": 607,
      "yt": 608,
      "_abo": 609,
      "_has": 610,
      "_ha": 611,
      "ond": 612,
      "ism": 613,
      "ric": 614,
      "_li": 615,
      "_def": 616,
      "ance": 617,
      "_V": 618,
      "ins": 619,
      "tric": 620,
      "Ph": 621,
      "_seen": 622,
      "oth": 623,
      "hes": 624,
      "fer": 625,
      "_used": 626,
      "terior": 627,
      "enti": 628,
      "so": 629,
      "ative": 630,
      "nal": 631,
      "_anti": 632,
      "hem": 633,
      "_Ref": 634,
      "af": 635,
      "_trans": 636,
      "Which": 637,
      "_ass": 638,
      "_dr": 639,
      "lop": 640,
      "ild": 641,
      "reased": 642,
      "urgery": 643,
      "ach": 644,
      "_cont": 645,
      "oci": 646,
      "ations": 647,
      "_form": 648,
      "ons": 649,
      "ang": 650,
      "edi": 651,
      "amin": 652,
      "ea": 653,
      "ute": 654,
      "ype": 655,
      "unc": 656,
      "_me": 657,
      "_en": 658,
      "oul": 659,
      "ven": 660,
      "_nerve": 661,
      "ste": 662,
      "_inv": 663,
      "_par": 664,
      "_occur": 665,
      "yd": 666,
      "_pos": 667,
      "ugh": 668,
      "_acid": 669,
      "iss": 670,
      "ould": 671,
      "ob": 672,
      "ral": 673,
      "_sc": 674,
      "_blood": 675,
      "ire": 676,
      "rop": 677,
      "reatment": 678,
      "_sup": 679,
      "ures": 680,
      "yc": 681,
      "_ag": 682,
      "ult": 683,
      "_co": 684,
      "_K": 685,
      "_gl": 686,
      "ases": 687,
      "_test": 688,
      "_inter": 689,
      "_no": 690,
      "_all": 691,
      "_year": 692,
      "_eff": 693,
      "eb": 694,
      "_app": 695,
      "cer": 696,
      "_mo": 697,
      "able": 698,
      "ax": 699,
      "_gen": 700,
      "atic": 701,
      "ific": 702,
      "_musc": 703,
      "_pl": 704,
      "mun": 705,
      "sy": 706,
      "ound": 707,
      "All": 708,
      "_have": 709,
      "lin": 710,
      "erv": 711,
      "ok": 712,
      "ace": 713,
      "ae": 714,
      "emia": 715,
      "tiv": 716,
      "ates": 717,
      "ung": 718,
      "_patient": 719,
      "ite": 720,
      "gnosis": 721,
      "lu": 722,
      "_man": 723,
      "tis": 724,
      "ateral": 725,
      "fter": 726,
      "io": 727,
      "be": 728,
      "_associ": 729,
      "icro": 730,
      "),": 731,
      "arr": 732,
      "_also": 733,
      "_but": 734,
      "_cause": 735,
      "row": 736,
      "pos": 737,
      "vel": 738,
      "_present": 739,
      "_due": 740,
      "rim": 741,
      "_tum": 742,
      "ex": 743,
      "yst": 744,
      "_Medicine": 745,
      "_edition": 746,
      "atory": 747,
      "anc": 748,
      "arm": 749,
      "_mal": 750,
      "_col": 751,
      "min": 752,
      "bd": 753,
      "velop": 754,
      "_j": 755,
      "_infection": 756,
      "_sec": 757,
      "own": 758,
      "ile": 759,
      "_An": 760,
      "ital": 761,
      "emb": 762,
      "ss": 763,
      "ail": 764,
      "cess": 765,
      "_this": 766,
      "lud": 767,
      "ane": 768,
      "ks": 769,
      "les": 770,
      "_mon": 771,
      "_sub": 772,
      "ody": 773,
      "_except": 774,
      "_ob": 775,
      "ici": 776,
      "ually": 777,
      "_than": 778,
      "ogen": 779,
      "ays": 780,
      "_drug": 781,
      "dition": 782,
      "ass": 783,
      "_resp": 784,
      "ma": 785,
      "_patients": 786,
      "NA": 787,
      "_child": 788,
      "_hem": 789,
      "arcin": 790,
      "_end": 791,
      "tal": 792,
      "Ref": 793,
      "ind": 794,
      "_associated": 795,
      "_more": 796,
      "are": 797,
      "li": 798,
      "ulation": 799,
      "_un": 800,
      "_ind": 801,
      "yro": 802,
      "hib": 803,
      "athology": 804,
      "ency": 805,
      "_U": 806,
      "oin": 807,
      "_after": 808,
      "por": 809,
      "ized": 810,
      "ft": 811,
      "action": 812,
      "atomy": 813,
      "mph": 814,
      "_ep": 815,
      "ental": 816,
      "truc": 817,
      "_ly": 818,
      "kin": 819,
      "yn": 820,
      "roph": 821,
      "_Ch": 822,
      "_level": 823,
      "_prote": 824,
      "ater": 825,
      "ulo": 826,
      "_invol": 827,
      "_up": 828,
      "_develop": 829,
      "_cons": 830,
      "_*": 831,
      "bc": 832,
      "_W": 833,
      "_op": 834,
      "_sign": 835,
      "asc": 836,
      "_Pre": 837,
      "_includ": 838,
      "bf": 839,
      "itive": 840,
      "Medicine": 841,
      "unction": 842,
      "_normal": 843,
      "ions": 844,
      "_bet": 845,
      "_should": 846,
      "Th": 847,
      "_dec": 848,
      "uch": 849,
      "_sm": 850,
      "_treatment": 851,
      "_ro": 852,
      "_low": 853,
      "_into": 854,
      "Surgery": 855,
      "ness": 856,
      "_fib": 857,
      "_like": 858,
      "ak": 859,
      "_met": 860,
      "ice": 861,
      "ari": 862,
      "alc": 863,
      "aracter": 864,
      "_med": 865,
      "_hyper": 866,
      "rin": 867,
      "ans": 868,
      "_other": 869,
      "_reg": 870,
      "_sym": 871,
      "armac": 872,
      "arcinoma": 873,
      "ten": 874,
      "_ve": 875,
      "_rec": 876,
      "tim": 877,
      "osph": 878,
      "lec": 879,
      "we": 880,
      "ise": 881,
      "_bec": 882,
      "uring": 883,
      "_comp": 884,
      "_syst": 885,
      "apy": 886,
      "_do": 887,
      "_dif": 888,
      "ating": 889,
      "_inj": 890,
      "_one": 891,
      "ement": 892,
      "hibit": 893,
      "ening": 894,
      "ry": 895,
      "_high": 896,
      "ech": 897,
      "dd": 898,
      "_pa": 899,
      "ected": 900,
      "ied": 901,
      "yroid": 902,
      "lex": 903,
      "_years": 904,
      "ature": 905,
      "Ch": 906,
      "ocial": 907,
      "ancy": 908,
      "alm": 909,
      "ted": 910,
      "bb": 911,
      "bo": 912,
      "_cor": 913,
      "_produc": 914,
      "âĢ": 915,
      "_lymph": 916,
      "_diagnosis": 917,
      "_contr": 918,
      "ark": 919,
      "_about": 920,
      "_tiss": 921,
      "ves": 922,
      "icrob": 923,
      "_character": 924,
      "_abs": 925,
      "_am": 926,
      "_fr": 927,
      "ick": 928,
      "aa": 929,
      "istr": 930,
      "ility": 931,
      "Pathology": 932,
      "armacology": 933,
      "_pain": 934,
      "ension": 935,
      "ocyt": 936,
      "_sur": 937,
      "_system": 938,
      "_imp": 939,
      "rease": 940,
      "Anatomy": 941,
      "ects": 942,
      "ree": 943,
      "_tub": 944,
      "irst": 945,
      "ram": 946,
      "_above": 947,
      "ucle": 948,
      "_disord": 949,
      "_di": 950,
      "linical": 951,
      "_This": 952,
      "erg": 953,
      "ting": 954,
      "usion": 955,
      "adi": 956,
      "ptom": 957,
      "_les": 958,
      "_muscle": 959,
      "_rel": 960,
      "_usually": 961,
      "ison": 962,
      "ld": 963,
      "_pol": 964,
      "occ": 965,
      "_type": 966,
      "_wee": 967,
      "rh": 968,
      "ack": 969,
      "erc": 970,
      "iciency": 971,
      "irus": 972,
      "ov": 973,
      "ysis": 974,
      "ole": 975,
      "ri": 976,
      "rough": 977,
      "asis": 978,
      "arg": 979,
      "ventive": 980,
      "sure": 981,
      "wo": 982,
      "ause": 983,
      "_intr": 984,
      "_month": 985,
      "Pharmacology": 986,
      "ydro": 987,
      "icrobiology": 988,
      "_nec": 989,
      "mia": 990,
      "_peri": 991,
      "bin": 992,
      "umb": 993,
      "ronic": 994,
      "_Ob": 995,
      "az": 996,
      "_ins": 997,
      "--": 998,
      "ally": 999,
      "iac": 1000,
      "aec": 1001,
      "df": 1002,
      "_fact": 1003,
      "zym": 1004,
      "_ser": 1005,
      "embran": 1006,
      "cf": 1007,
      "_body": 1008,
      "nown": 1009,
      "_giv": 1010,
      "ween": 1011,
      "ible": 1012,
      "ba": 1013,
      "ca": 1014,
      "ective": 1015,
      "_sever": 1016,
      "isk": 1017,
      "cent": 1018,
      "cop": 1019,
      "ye": 1020,
      "_ther": 1021,
      "_ret": 1022,
      "_syn": 1023,
      "_po": 1024,
      "aneous": 1025,
      "_occurs": 1026,
      "_activ": 1027,
      "_bre": 1028,
      "_spec": 1029,
      "_when": 1030,
      "_pul": 1031,
      "lass": 1032,
      "ysiology": 1033,
      "gan": 1034,
      "_dep": 1035,
      "atric": 1036,
      "aryn": 1037,
      "athy": 1038,
      "_aff": 1039,
      "_age": 1040,
      "_inhibit": 1041,
      "_und": 1042,
      "och": 1043,
      "lam": 1044,
      "stetric": 1045,
      "_causes": 1046,
      "cd": 1047,
      "_br": 1048,
      "_only": 1049,
      "_out": 1050,
      "_ref": 1051,
      "ler": 1052,
      "arb": 1053,
      "phy": 1054,
      "_Preventive": 1055,
      "_over": 1056,
      "ime": 1057,
      "ioc": 1058,
      "_show": 1059,
      "_\"": 1060,
      "_between": 1061,
      "ck": 1062,
      "_during": 1063,
      "_was": 1064,
      "old": 1065,
      "ade": 1066,
      "ns": 1067,
      "monary": 1068,
      "dom": 1069,
      "hel": 1070,
      "abol": 1071,
      "ix": 1072,
      "ury": 1073,
      "ptoms": 1074,
      "_lead": 1075,
      "_protein": 1076,
      "ont": 1077,
      "_bone": 1078,
      "stetrics": 1079,
      "ains": 1080,
      "II": 1081,
      "It": 1082,
      "Social": 1083,
      "_will": 1084,
      "_pregn": 1085,
      "_through": 1086,
      "ological": 1087,
      "atitis": 1088,
      "Hyp": 1089,
      "co": 1090,
      "_increased": 1091,
      "ural": 1092,
      "EN": 1093,
      "plic": 1094,
      "uro": 1095,
      "_fem": 1096,
      "pir": 1097,
      "erior": 1098,
      "_there": 1099,
      "_comple": 1100,
      "_pressure": 1101,
      "rimary": 1102,
      "_carcinoma": 1103,
      "sych": 1104,
      "_days": 1105,
      "ption": 1106,
      "arge": 1107,
      "ved": 1108,
      "me": 1109,
      "ression": 1110,
      "_appear": 1111,
      "alled": 1112,
      "_ear": 1113,
      "rol": 1114,
      "thalm": 1115,
      "ever": 1116,
      "_first": 1117,
      "_nod": 1118,
      "_J": 1119,
      "_ur": 1120,
      ".*": 1121,
      "_min": 1122,
      "ascular": 1123,
      "_em": 1124,
      "ediatric": 1125,
      "_two": 1126,
      "tics": 1127,
      "_ul": 1128,
      "_rem": 1129,
      "_antib": 1130,
      "ood": 1131,
      "_condition": 1132,
      "ynaec": 1133,
      "_ox": 1134,
      "_cases": 1135,
      "Microbiology": 1136,
      "_ext": 1137,
      "_ir": 1138,
      "_membran": 1139,
      "sis": 1140,
      "form": 1141,
      "_tissue": 1142,
      "_Obstetrics": 1143,
      "_?": 1144,
      "ull": 1145,
      "_es": 1146,
      "_months": 1147,
      "fd": 1148,
      "oint": 1149,
      "_>": 1150,
      "_skin": 1151,
      "_arter": 1152,
      "_its": 1153,
      "_flu": 1154,
      "_called": 1155,
      "_aery": 1156,
      "oplas": 1157,
      "_risk": 1158,
      "_bi": 1159,
      "_recept": 1160,
      "iochem": 1161,
      "vement": 1162,
      "_caused": 1163,
      "ization": 1164,
      "_liver": 1165,
      "_weeks": 1166,
      "acture": 1167,
      "_val": 1168,
      "_result": 1169,
      "St": 1170,
      "_been": 1171,
      "unt": 1172,
      "_rep": 1173,
      "ext": 1174,
      "olar": 1175,
      "ale": 1176,
      "_tumor": 1177,
      "istry": 1178,
      "ults": 1179,
      "illary": 1180,
      "_rate": 1181,
      "rosis": 1182,
      "cb": 1183,
      "_des": 1184,
      "_gro": 1185,
      "_str": 1186,
      "_deficiency": 1187,
      "_hep": 1188,
      "_non": 1189,
      "ynaecology": 1190,
      "_pers": 1191,
      "_loss": 1192,
      "_immun": 1193,
      "oice": 1194,
      "_card": 1195,
      "ame": 1196,
      "_these": 1197,
      "_such": 1198,
      "_symptoms": 1199,
      "_so": 1200,
      "_her": 1201,
      "_small": 1202,
      "_qu": 1203,
      "fe": 1204,
      "phthalm": 1205,
      "als": 1206,
      "Dental": 1207,
      "_acute": 1208,
      "_bl": 1209,
      "amination": 1210,
      "_because": 1211,
      "_left": 1212,
      "neum": 1213,
      "out": 1214,
      "_St": 1215,
      "_given": 1216,
      "_indic": 1217,
      "_sens": 1218,
      "_second": 1219,
      "_pg": 1220,
      "der": 1221,
      "orrh": 1222,
      "ediatrics": 1223,
      "normal": 1224,
      "atures": 1225,
      "_loc": 1226,
      "hed": 1227,
      "_hist": 1228,
      "_secre": 1229,
      "_ves": 1230,
      "iochemistry": 1231,
      "ired": 1232,
      "Gynaecology": 1233,
      "_both": 1234,
      "ulin": 1235,
      "_lung": 1236,
      "_calc": 1237,
      "_typ": 1238,
      "sel": 1239,
      "ester": 1240,
      "_obs": 1241,
      "_long": 1242,
      "_mg": 1243,
      "_fail": 1244,
      "alth": 1245,
      "_cancer": 1246,
      "_enzym": 1247,
      "fic": 1248,
      "uter": 1249,
      "_requ": 1250,
      "ule": 1251,
      "eding": 1252,
      "entric": 1253,
      "_if": 1254,
      "odies": 1255,
      "TI": 1256,
      "_prev": 1257,
      "_pregnancy": 1258,
      "ules": 1259,
      "_injury": 1260,
      "eg": 1261,
      "ours": 1262,
      "_likely": 1263,
      "ture": 1264,
      "ann": 1265,
      "_function": 1266,
      "_X": 1267,
      "_sin": 1268,
      "_reduc": 1269,
      "_right": 1270,
      "db": 1271,
      "ritis": 1272,
      "ust": 1273,
      "fb": 1274,
      "_less": 1275,
      "uce": 1276,
      "ie": 1277,
      "ene": 1278,
      "irc": 1279,
      "fa": 1280,
      "art": 1281,
      "inding": 1282,
      "_anterior": 1283,
      "da": 1284,
      "_commonly": 1285,
      "_Wh": 1286,
      "dc": 1287,
      "_differ": 1288,
      "ogra": 1289,
      "ternal": 1290,
      "_ev": 1291,
      "ision": 1292,
      "_ele": 1293,
      "_include": 1294,
      "_.": 1295,
      "ious": 1296,
      "_children": 1297,
      "ema": 1298,
      "_old": 1299,
      "_cap": 1300,
      "book": 1301,
      "loc": 1302,
      "ically": 1303,
      "_some": 1304,
      "uct": 1305,
      "_Ind": 1306,
      "_head": 1307,
      "aj": 1308,
      "fc": 1309,
      "ble": 1310,
      "thes": 1311,
      "_meth": 1312,
      "_gluc": 1313,
      "_Al": 1314,
      "vers": 1315,
      "_time": 1316,
      "_disorder": 1317,
      "Inc": 1318,
      "_main": 1319,
      "ereb": 1320,
      "_membrane": 1321,
      "_Ex": 1322,
      "icular": 1323,
      "lamm": 1324,
      "omal": 1325,
      "_true": 1326,
      "_organ": 1327,
      "other": 1328,
      "omen": 1329,
      "_known": 1330,
      "tern": 1331,
      "rent": 1332,
      "phal": 1333,
      "reases": 1334,
      "_lower": 1335,
      "amine": 1336,
      "extbook": 1337,
      "_renal": 1338,
      "_posterior": 1339,
      "_choice": 1340,
      "ER": 1341,
      "_my": 1342,
      "_severe": 1343,
      "_therapy": 1344,
      "Physiology": 1345,
      "_+": 1346,
      "_surf": 1347,
      "_levels": 1348,
      "Al": 1349,
      "_Hyp": 1350,
      "ages": 1351,
      "Tr": 1352,
      "idne": 1353,
      "tid": 1354,
      "_nucle": 1355,
      "ution": 1356,
      "irect": 1357,
      "cell": 1358,
      "gnos": 1359,
      "_Ph": 1360,
      "ize": 1361,
      "_group": 1362,
      "_cent": 1363,
      "itamin": 1364,
      "_under": 1365,
      "_side": 1366,
      "_found": 1367,
      "_fever": 1368,
      "_does": 1369,
      "_lim": 1370,
      "_cr": 1371,
      "Ex": 1372,
      "til": 1373,
      "oglo": 1374,
      ":-": 1375,
      "Pro": 1376,
      "_clo": 1377,
      "_path": 1378,
      "Ac": 1379,
      "ration": 1380,
      "_acc": 1381,
      "lyc": 1382,
      "_drugs": 1383,
      "ii": 1384,
      "_abdom": 1385,
      "_Page": 1386,
      "_pal": 1387,
      "ytic": 1388,
      "_mm": 1389,
      "ange": 1390,
      "_gland": 1391,
      "etal": 1392,
      "_within": 1393,
      "_virus": 1394,
      "_failure": 1395,
      "_we": 1396,
      "ococc": 1397,
      "_often": 1398,
      "ential": 1399,
      "_muc": 1400,
      "_block": 1401,
      "acc": 1402,
      "_grow": 1403,
      "_action": 1404,
      "ish": 1405,
      "ities": 1406,
      "ough": 1407,
      "Most": 1408,
      "red": 1409,
      "lom": 1410,
      "_reaction": 1411,
      "_wall": 1412,
      "_cat": 1413,
      "asal": 1414,
      "_examination": 1415,
      "_det": 1416,
      "lor": 1417,
      "_dys": 1418,
      "esthes": 1419,
      "Biochemistry": 1420,
      "_gene": 1421,
      "Ne": 1422,
      "ants": 1423,
      "_positive": 1424,
      "_radi": 1425,
      "ides": 1426,
      "istic": 1427,
      "ajor": 1428,
      "uk": 1429,
      "_they": 1430,
      "xim": 1431,
      "_chronic": 1432,
      "mit": 1433,
      "_car": 1434,
      "_pot": 1435,
      "_exc": 1436,
      "_clinical": 1437,
      "_fracture": 1438,
      "que": 1439,
      "requ": 1440,
      "Pediatrics": 1441,
      "_bacter": 1442,
      "_vol": 1443,
      "hetic": 1444,
      "par": 1445,
      "ator": 1446,
      "_hum": 1447,
      "ification": 1448,
      "ues": 1449,
      "_term": 1450,
      "po": 1451,
      "_prog": 1452,
      "_fluid": 1453,
      "ronch": 1454,
      "ised": 1455,
      "_class": 1456,
      "_done": 1457,
      "_surgery": 1458,
      "_exp": 1459,
      "_lateral": 1460,
      "tig": 1461,
      "_metabol": 1462,
      "esthesia": 1463,
      "_,": 1464,
      "asia": 1465,
      "Com": 1466,
      "enic": 1467,
      "ily": 1468,
      "_Ne": 1469,
      "_Pro": 1470,
      "_=": 1471,
      "_plas": 1472,
      "ones": 1473,
      "_dist": 1474,
      "ilateral": 1475,
      "_abnormal": 1476,
      "_features": 1477,
      "_Ac": 1478,
      "bs": 1479,
      "_phosph": 1480,
      "truction": 1481,
      "phthalmology": 1482,
      "ife": 1483,
      "_ov": 1484,
      "_effect": 1485,
      "_lesions": 1486,
      "last": 1487,
      "onic": 1488,
      "ivid": 1489,
      "hest": 1490,
      "_multi": 1491,
      "romb": 1492,
      "_vein": 1493,
      "_ang": 1494,
      "_any": 1495,
      "ithel": 1496,
      "_red": 1497,
      "_post": 1498,
      "rogen": 1499,
      "_pulmonary": 1500,
      "_bran": 1501,
      "cr": 1502,
      "ian": 1503,
      "eration": 1504,
      "aining": 1505,
      "idence": 1506,
      "pec": 1507,
      "esis": 1508,
      "opathy": 1509,
      "ON": 1510,
      "_tox": 1511,
      "oxic": 1512,
      "ake": 1513,
      "uff": 1514,
      "_surface": 1515,
      "enous": 1516,
      "_stim": 1517,
      "_ble": 1518,
      "its": 1519,
      "olic": 1520,
      "_DNA": 1521,
      "_their": 1522,
      "ty": 1523,
      "_synthes": 1524,
      "_He": 1525,
      "_primary": 1526,
      "AL": 1527,
      "_exam": 1528,
      "genital": 1529,
      "ability": 1530,
      "_cyst": 1531,
      "_mid": 1532,
      "omas": 1533,
      "_hours": 1534,
      "very": 1535,
      "_stud": 1536,
      "_increase": 1537,
      "_site": 1538,
      "rd": 1539,
      "_period": 1540,
      "_upper": 1541,
      "_page": 1542,
      "of": 1543,
      "iat": 1544,
      "_gas": 1545,
      "emic": 1546,
      "_presents": 1547,
      "_meas": 1548,
      "_circ": 1549,
      "idney": 1550,
      "uria": 1551,
      "_lip": 1552,
      "_att": 1553,
      "CE": 1554,
      "_artery": 1555,
      "urrent": 1556,
      "orn": 1557,
      "_gr": 1558,
      "orens": 1559,
      "_aer": 1560,
      "orensic": 1561,
      "_factor": 1562,
      "Con": 1563,
      "year": 1564,
      "_case": 1565,
      "_These": 1566,
      ".#": 1567,
      "_sinus": 1568,
      "onia": 1569,
      "âĢĵ": 1570,
      "arynge": 1571,
      "_water": 1572,
      "_fat": 1573,
      "ume": 1574,
      "ges": 1575,
      "ectomy": 1576,
      "ocytes": 1577,
      "_where": 1578,
      "_use": 1579,
      "osa": 1580,
      "verse": 1581,
      "_lig": 1582,
      "ms": 1583,
      "let": 1584,
      "den": 1585,
      "_prol": 1586,
      "lic": 1587,
      "ines": 1588,
      "_gran": 1589,
      "ced": 1590,
      "_concent": 1591,
      "rine": 1592,
      "port": 1593,
      "anges": 1594,
      "_activity": 1595,
      "wer": 1596,
      "_sug": 1597,
      "Ophthalmology": 1598,
      "rug": 1599,
      "trac": 1600,
      "_shows": 1601,
      "_/": 1602,
      "man": 1603,
      "ward": 1604,
      "_vessel": 1605,
      "IC": 1606,
      "_chol": 1607,
      "_large": 1608,
      "ites": 1609,
      "_inflamm": 1610,
      "CT": 1611,
      "Gen": 1612,
      "ENT": 1613,
      "_tend": 1614,
      "_Most": 1615,
      "ocal": 1616,
      "_area": 1617,
      "_health": 1618,
      "round": 1619,
      "ament": 1620,
      "_Com": 1621,
      "_cyc": 1622,
      "_involved": 1623,
      "oids": 1624,
      "onse": 1625,
      "_lesion": 1626,
      "_respir": 1627,
      "_struc": 1628,
      "_frequ": 1629,
      "_major": 1630,
      "_As": 1631,
      "..": 1632,
      "hea": 1633,
      "_vag": 1634,
      "arrison": 1635,
      "_death": 1636,
      "aria": 1637,
      "otic": 1638,
      "_panc": 1639,
      "_ent": 1640,
      "Rad": 1641,
      "_pneum": 1642,
      "duction": 1643,
      "echan": 1644,
      "_pat": 1645,
      "_malign": 1646,
      "aryngeal": 1647,
      "estinal": 1648,
      "agement": 1649,
      "ocard": 1650,
      "_brain": 1651,
      "IV": 1652,
      "_numb": 1653,
      "ained": 1654,
      "_muscles": 1655,
      "medi": 1656,
      "enal": 1657,
      "_thyroid": 1658,
      "_ventric": 1659,
      "eth": 1660,
      "_cyt": 1661,
      "_II": 1662,
      "_results": 1663,
      "ps": 1664,
      "ross": 1665,
      "_process": 1666,
      "way": 1667,
      "ination": 1668,
      "_anemia": 1669,
      "_sim": 1670,
      "_mass": 1671,
      "_specific": 1672,
      "IN": 1673,
      "_hea": 1674,
      "AN": 1675,
      "_sol": 1676,
      "_presence": 1677,
      "ylo": 1678,
      "_vis": 1679,
      "ately": 1680,
      "pheral": 1681,
      "_characterized": 1682,
      "_enzyme": 1683,
      "_who": 1684,
      "apid": 1685,
      "ider": 1686,
      "ort": 1687,
      "_breast": 1688,
      "ently": 1689,
      "_Q": 1690,
      "gative": 1691,
      "_uter": 1692,
      "_well": 1693,
      "_tra": 1694,
      "urn": 1695,
      "dle": 1696,
      "eak": 1697,
      "air": 1698,
      "line": 1699,
      "lect": 1700,
      "_supp": 1701,
      "_serum": 1702,
      "_mod": 1703,
      "_cerv": 1704,
      "PT": 1705,
      "_medi": 1706,
      "oscop": 1707,
      "_hydro": 1708,
      "_air": 1709,
      "tra": 1710,
      "_sal": 1711,
      "_effects": 1712,
      "ids": 1713,
      "elv": 1714,
      "_ure": 1715,
      "ni": 1716,
      "_dose": 1717,
      "oic": 1718,
      "_tem": 1719,
      "Im": 1720,
      "ina": 1721,
      "_<": 1722,
      "mino": 1723,
      "ational": 1724,
      "cet": 1725,
      "_best": 1726,
      "yr": 1727,
      "_neck": 1728,
      "_bas": 1729,
      "oster": 1730,
      "sychiat": 1731,
      "_diagnos": 1732,
      "_mark": 1733,
      "_epithel": 1734,
      "_without": 1735,
      "_complic": 1736,
      "tions": 1737,
      "erence": 1738,
      "_rele": 1739,
      "ock": 1740,
      "ality": 1741,
      "_urine": 1742,
      "omes": 1743,
      "adder": 1744,
      "sychiatry": 1745,
      "utr": 1746,
      "_method": 1747,
      "oral": 1748,
      "_duct": 1749,
      "_plasma": 1750,
      "_his": 1751,
      "odium": 1752,
      "_joint": 1753,
      "_rad": 1754,
      "_On": 1755,
      "inc": 1756,
      "_development": 1757,
      "Forensic": 1758,
      "rac": 1759,
      "RI": 1760,
      "_Which": 1761,
      "_cardiac": 1762,
      "luc": 1763,
      "_stat": 1764,
      "_appearance": 1765,
      "End": 1766,
      "_There": 1767,
      "_response": 1768,
      "_av": 1769,
      "As": 1770,
      "kal": 1771,
      "_vari": 1772,
      "_Con": 1773,
      "_growth": 1774,
      "uration": 1775,
      "_glucose": 1776,
      "apter": 1777,
      "ists": 1778,
      "bet": 1779,
      "_India": 1780,
      "_person": 1781,
      "ygen": 1782,
      "_aut": 1783,
      "seud": 1784,
      "otor": 1785,
      "itu": 1786,
      "ula": 1787,
      "ray": 1788,
      "_sw": 1789,
      "_history": 1790,
      "_lab": 1791,
      "coh": 1792,
      "_characteristic": 1793,
      "_formation": 1794,
      "orption": 1795,
      "ful": 1796,
      "_weight": 1797,
      "_changes": 1798,
      "ifest": 1799,
      "_Harrison": 1800,
      "itary": 1801,
      "_cle": 1802,
      "pro": 1803,
      "her": 1804,
      "_life": 1805,
      "_tract": 1806,
      "_bleeding": 1807,
      "_antigen": 1808,
      "iting": 1809,
      "_eye": 1810,
      "ird": 1811,
      "hyd": 1812,
      "tib": 1813,
      "utaneous": 1814,
      "_max": 1815,
      "_Ig": 1816,
      "rept": 1817,
      "_cereb": 1818,
      "&;": 1819,
      "_finding": 1820,
      "_ulcer": 1821,
      "dic": 1822,
      "_again": 1823,
      "ret": 1824,
      "_general": 1825,
      "aw": 1826,
      "ophil": 1827,
      "_would": 1828,
      "RE": 1829,
      "_direct": 1830,
      "ape": 1831,
      "ometr": 1832,
      "_chrom": 1833,
      "AS": 1834,
      "_resist": 1835,
      "_fl": 1836,
      "_oste": 1837,
      "_disorders": 1838,
      "_affected": 1839,
      "_respiratory": 1840,
      "_line": 1841,
      "lomer": 1842,
      "eng": 1843,
      "_abdominal": 1844,
      "TP": 1845,
      "_anal": 1846,
      "_number": 1847,
      "oplasm": 1848,
      "erat": 1849,
      "_wor": 1850,
      "_conf": 1851,
      "_plac": 1852,
      "ranial": 1853,
      "_rare": 1854,
      "_neuro": 1855,
      "ined": 1856,
      "orb": 1857,
      "_yo": 1858,
      "lation": 1859,
      "_depend": 1860,
      "_diseases": 1861,
      "General": 1862,
      "_hand": 1863,
      "rem": 1864,
      "_thromb": 1865,
      "ili": 1866,
      "_need": 1867,
      "iter": 1868,
      "_volume": 1869,
      "_cm": 1870,
      "use": 1871,
      "itation": 1872,
      "_ana": 1873,
      "_then": 1874,
      "_synthesis": 1875,
      "_receptor": 1876,
      "_mut": 1877,
      "_fac": 1878,
      "_factors": 1879,
      "ited": 1880,
      "_tumors": 1881,
      "_proteins": 1882,
      "ressive": 1883,
      "ingle": 1884,
      "owever": 1885,
      "vity": 1886,
      "Or": 1887,
      "_disc": 1888,
      "_Dia": 1889,
      "_Im": 1890,
      "ography": 1891,
      "_vacc": 1892,
      "_receptors": 1893,
      "_prov": 1894,
      "log": 1895,
      "_elev": 1896,
      "betes": 1897,
      "arrow": 1898,
      "_Tr": 1899,
      "AR": 1900,
      "CO": 1901,
      "ner": 1902,
      "opsy": 1903,
      "tein": 1904,
      "_early": 1905,
      "_Inf": 1906,
      "_cord": 1907,
      "rophy": 1908,
      "ling": 1909,
      "orph": 1910,
      "fore": 1911,
      "_expos": 1912,
      "_IV": 1913,
      "_Edition": 1914,
      "_part": 1915,
      "cin": 1916,
      "ev": 1917,
      "renal": 1918,
      "_dam": 1919,
      "_molec": 1920,
      "read": 1921,
      "_deg": 1922,
      "cemia": 1923,
      "_great": 1924,
      "_vessels": 1925,
      "gest": 1926,
      "ters": 1927,
      "_mac": 1928,
      "itivity": 1929,
      "usp": 1930,
      "En": 1931,
      "ymph": 1932,
      "_They": 1933,
      "_before": 1934,
      "atal": 1935,
      "_stimul": 1936,
      "otid": 1937,
      "_appro": 1938,
      "uma": 1939,
      "ces": 1940,
      "_stage": 1941,
      "_leuk": 1942,
      "_Inc": 1943,
      "_Textbook": 1944,
      "_manifest": 1945,
      "_If": 1946,
      "Un": 1947,
      "_aden": 1948,
      "ended": 1949,
      "olytic": 1950,
      "_dem": 1951,
      "_initi": 1952,
      "_cav": 1953,
      "los": 1954,
      "_women": 1955,
      "imum": 1956,
      "_concentration": 1957,
      "plasia": 1958,
      "osomal": 1959,
      "rinc": 1960,
      "enz": 1961,
      "_space": 1962,
      "ID": 1963,
      "_prod": 1964,
      "oglobin": 1965,
      "_Co": 1966,
      "_tak": 1967,
      "erculo": 1968,
      "_new": 1969,
      "_mater": 1970,
      "_three": 1971,
      "ymp": 1972,
      "isoning": 1973,
      "ilar": 1974,
      "efore": 1975,
      "_infections": 1976,
      "echanism": 1977,
      "TH": 1978,
      "_against": 1979,
      "tit": 1980,
      "_rapid": 1981,
      "ella": 1982,
      "_increases": 1983,
      "orrhage": 1984,
      "ds": 1985,
      "_phase": 1986,
      "yg": 1987,
      "_kidney": 1988,
      "set": 1989,
      "_negative": 1990,
      "_complex": 1991,
      "_very": 1992,
      "ormone": 1993,
      "not": 1994,
      "_day": 1995,
      "Inf": 1996,
      "deg": 1997,
      "ially": 1998,
      "thm": 1999,
      "_mes": 2000,
      "_active": 2001,
      "_z": 2002,
      "osterior": 2003,
      "_bronch": 2004,
      "_ax": 2005,
      "_flow": 2006,
      "_pop": 2007,
      "lood": 2008,
      "_chem": 2009,
      "_obstruction": 2010,
      "_Ad": 2011,
      "_amino": 2012,
      "_phys": 2013,
      "igment": 2014,
      "_id": 2015,
      "Par": 2016,
      "_agent": 2017,
      "ividual": 2018,
      "_feature": 2019,
      "omp": 2020,
      "_branch": 2021,
      "_male": 2022,
      "_--": 2023,
      "ystic": 2024,
      "Sup": 2025,
      "_female": 2026,
      "_reflex": 2027,
      "iasis": 2028,
      "_acids": 2029,
      "omatic": 2030,
      "_âĢĵ": 2031,
      "oss": 2032,
      "urgical": 2033,
      "cessive": 2034,
      "_region": 2035,
      "_pass": 2036,
      "_Dise": 2037,
      "_effective": 2038,
      "_control": 2039,
      "lerosis": 2040,
      "uod": 2041,
      "ophag": 2042,
      "ples": 2043,
      "opa": 2044,
      "agon": 2045,
      "piratory": 2046,
      "_cl": 2047,
      "_oral": 2048,
      "hydro": 2049,
      "_lay": 2050,
      "_chest": 2051,
      "_er": 2052,
      "BC": 2053,
      "ulmonary": 2054,
      "ified": 2055,
      "Res": 2056,
      "val": 2057,
      "_dil": 2058,
      "Per": 2059,
      "_x": 2060,
      "to": 2061,
      "enia": 2062,
      "tered": 2063,
      "ticular": 2064,
      "IS": 2065,
      "rate": 2066,
      "_ligament": 2067,
      "_ster": 2068,
      "_secondary": 2069,
      "gment": 2070,
      "ogenic": 2071,
      "_produce": 2072,
      "_decreased": 2073,
      "ensive": 2074,
      "_hel": 2075,
      "_management": 2076,
      "ink": 2077,
      "osp": 2078,
      "_below": 2079,
      "_involvement": 2080,
      "_ery": 2081,
      "_same": 2082,
      "ety": 2083,
      "_plate": 2084,
      "_central": 2085,
      "ither": 2086,
      "_multiple": 2087,
      "phosph": 2088,
      "_respons": 2089,
      "int": 2090,
      "olysis": 2091,
      "_she": 2092,
      "_causing": 2093,
      "ologic": 2094,
      "ulf": 2095,
      "inant": 2096,
      "_secretion": 2097,
      "icros": 2098,
      "_along": 2099,
      "Dia": 2100,
      "_del": 2101,
      "_fo": 2102,
      "_size": 2103,
      "ash": 2104,
      "_peripheral": 2105,
      "yroidism": 2106,
      "plac": 2107,
      "_Chapter": 2108,
      "_Dis": 2109,
      "pha": 2110,
      "tical": 2111,
      "iral": 2112,
      "_organism": 2113,
      "oman": 2114,
      "fusion": 2115,
      "_prom": 2116,
      "app": 2117,
      "ave": 2118,
      "hy": 2119,
      "astro": 2120,
      "_poisoning": 2121,
      "amp": 2122,
      "aving": 2123,
      "Ad": 2124,
      "cohol": 2125,
      "aly": 2126,
      "_sex": 2127,
      "_pap": 2128,
      "_carr": 2129,
      "omm": 2130,
      "_bodies": 2131,
      "ache": 2132,
      "less": 2133,
      "_individual": 2134,
      "_emb": 2135,
      "els": 2136,
      "_act": 2137,
      "Increased": 2138,
      "atous": 2139,
      "mong": 2140,
      "_leads": 2141,
      "_pelv": 2142,
      "ead": 2143,
      "ergic": 2144,
      "lastic": 2145,
      "_deli": 2146,
      "order": 2147,
      "_micro": 2148,
      "_onset": 2149,
      "_CD": 2150,
      "_Med": 2151,
      "_phen": 2152,
      "erative": 2153,
      "ending": 2154,
      "arcoma": 2155,
      "Co": 2156,
      "_superior": 2157,
      "ower": 2158,
      "_neph": 2159,
      "_impo": 2160,
      "_internal": 2161,
      "Radiology": 2162,
      "_medial": 2163,
      "vention": 2164,
      "illin": 2165,
      "_Sh": 2166,
      "AD": 2167,
      "osome": 2168,
      "duced": 2169,
      "ances": 2170,
      "for": 2171,
      "yph": 2172,
      "Hyper": 2173,
      "reptococc": 2174,
      "):": 2175,
      "_calcium": 2176,
      "_vascular": 2177,
      "otherapy": 2178,
      "_conditions": 2179,
      "_medical": 2180,
      "_required": 2181,
      "iver": 2182,
      "_colon": 2183,
      "_thick": 2184,
      "Psychiatry": 2185,
      "ferred": 2186,
      "ier": 2187,
      "At": 2188,
      "lob": 2189,
      "Dec": 2190,
      "_admin": 2191,
      "_types": 2192,
      "_defect": 2193,
      "_consider": 2194,
      "opro": 2195,
      "Sub": 2196,
      "_el": 2197,
      "Am": 2198,
      "ES": 2199,
      "_prevent": 2200,
      "uls": 2201,
      "_heart": 2202,
      "_movement": 2203,
      "_All": 2204,
      "uth": 2205,
      "ches": 2206,
      "omach": 2207,
      "_hormone": 2208,
      "_oper": 2209,
      "Type": 2210,
      "reated": 2211,
      "nea": 2212,
      "_pr": 2213,
      "erculosis": 2214,
      "_hal": 2215,
      "_related": 2216,
      "_measure": 2217,
      "_glyc": 2218,
      "_beh": 2219,
      "_hype": 2220,
      "_reve": 2221,
      "_amo": 2222,
      "_oxygen": 2223,
      "TION": 2224,
      "tide": 2225,
      "elling": 2226,
      "_men": 2227,
      "_iron": 2228,
      "_Treatment": 2229,
      "ring": 2230,
      "_local": 2231,
      "ils": 2232,
      "_tube": 2233,
      "Trans": 2234,
      "amide": 2235,
      "_mit": 2236,
      "crib": 2237,
      "_toxic": 2238,
      "_At": 2239,
      "Pre": 2240,
      "tial": 2241,
      "_est": 2242,
      "_tissues": 2243,
      "_single": 2244,
      "_EX": 2245,
      "_Ca": 2246,
      "ogenesis": 2247,
      "eric": 2248,
      "_fam": 2249,
      "plant": 2250,
      "_der": 2251,
      "rs": 2252,
      "_metast": 2253,
      "iew": 2254,
      "_pancre": 2255,
      "heum": 2256,
      "_By": 2257,
      "Mis": 2258,
      "_derm": 2259,
      "_segment": 2260,
      "%)": 2261,
      "known": 2262,
      "ximal": 2263,
      "_production": 2264,
      "DL": 2265,
      "_produced": 2266,
      "_necrosis": 2267,
      "_formed": 2268,
      "_coll": 2269,
      "Met": 2270,
      "oints": 2271,
      "ission": 2272,
      "Ep": 2273,
      "_complete": 2274,
      "_nodes": 2275,
      "econd": 2276,
      "_fil": 2277,
      "_fetal": 2278,
      "ways": 2279,
      "cyt": 2280,
      "_agents": 2281,
      "_RE": 2282,
      "_impoant": 2283,
      "_rest": 2284,
      "_flex": 2285,
      "_being": 2286,
      "_carb": 2287,
      "_perform": 2288,
      "itone": 2289,
      "eful": 2290,
      "Hem": 2291,
      "reg": 2292,
      "Acute": 2293,
      "_while": 2294,
      "_cervical": 2295,
      "azole": 2296,
      "_Reference": 2297,
      "inase": 2298,
      "_bladder": 2299,
      "_back": 2300,
      "orac": 2301,
      "itus": 2302,
      "CD": 2303,
      "Anti": 2304,
      "_granulo": 2305,
      "_rect": 2306,
      "ales": 2307,
      "_Sc": 2308,
      "_prim": 2309,
      "_glomer": 2310,
      "ardia": 2311,
      "_What": 2312,
      "_ben": 2313,
      "oll": 2314,
      "angl": 2315,
      "_neu": 2316,
      "CA": 2317,
      "CEPT": 2318,
      "uble": 2319,
      "ocy": 2320,
      "_III": 2321,
      "----": 2322,
      "_deep": 2323,
      "_inferior": 2324,
      "_mening": 2325,
      "CG": 2326,
      "idine": 2327,
      "sm": 2328,
      "tor": 2329,
      "_pur": 2330,
      "ropathy": 2331,
      "_poss": 2332,
      "athetic": 2333,
      "ars": 2334,
      "_regard": 2335,
      "_epid": 2336,
      "_forms": 2337,
      "_conj": 2338,
      "cellaneous": 2339,
      "nar": 2340,
      "anth": 2341,
      "_biopsy": 2342,
      "atin": 2343,
      "_position": 2344,
      "_cycle": 2345,
      "asion": 2346,
      "_neur": 2347,
      "_remov": 2348,
      "_proced": 2349,
      "_signific": 2350,
      "_EXCEPT": 2351,
      "iop": 2352,
      "_equ": 2353,
      "_No": 2354,
      "_contin": 2355,
      "_human": 2356,
      "lut": 2357,
      "_either": 2358,
      "Ana": 2359,
      "_damage": 2360,
      "True": 2361,
      "iliary": 2362,
      "_compl": 2363,
      "_including": 2364,
      "_En": 2365,
      "_middle": 2366,
      "ochond": 2367,
      "MP": 2368,
      "_change": 2369,
      "encephal": 2370,
      "edics": 2371,
      "_supply": 2372,
      "_population": 2373,
      "ived": 2374,
      "alse": 2375,
      "urs": 2376,
      "ning": 2377,
      "_many": 2378,
      "_canal": 2379,
      "_study": 2380,
      "ember": 2381,
      "_stand": 2382,
      "_mechanism": 2383,
      "_malignant": 2384,
      "atio": 2385,
      "yelo": 2386,
      "Answer": 2387,
      "_tumour": 2388,
      "_ant": 2389,
      "_antibodies": 2390,
      "_prec": 2391,
      "_edema": 2392,
      "icroscop": 2393,
      "larg": 2394,
      "oderm": 2395,
      "_release": 2396,
      "ficial": 2397,
      "SH": 2398,
      "_total": 2399,
      "ophage": 2400,
      "_combin": 2401,
      "_oxid": 2402,
      "reasing": 2403,
      "_antibody": 2404,
      "put": 2405,
      "br": 2406,
      "estion": 2407,
      "_distal": 2408,
      "most": 2409,
      "omiting": 2410,
      "_each": 2411,
      "omic": 2412,
      "ophagus": 2413,
      "_includes": 2414,
      "portant": 2415,
      "_prot": 2416,
      "_De": 2417,
      "_depos": 2418,
      "auc": 2419,
      "uation": 2420,
      "_different": 2421,
      "_vas": 2422,
      "_pneumonia": 2423,
      "cal": 2424,
      "_Clinical": 2425,
      "This": 2426,
      "utrition": 2427,
      "inary": 2428,
      "_woman": 2429,
      "_gastric": 2430,
      ")*": 2431,
      "aindic": 2432,
      "_dig": 2433,
      "_suggest": 2434,
      "trib": 2435,
      "entral": 2436,
      "uv": 2437,
      "Hep": 2438,
      "ense": 2439,
      "_haem": 2440,
      "ellular": 2441,
      "nia": 2442,
      "_prob": 2443,
      "utes": 2444,
      "LE": 2445,
      ".>": 2446,
      "_weak": 2447,
      "onal": 2448,
      "ores": 2449,
      "oli": 2450,
      "_ver": 2451,
      "_congenital": 2452,
      "_Other": 2453,
      "_bo": 2454,
      "aps": 2455,
      "_OF": 2456,
      "ias": 2457,
      "aphy": 2458,
      "_bacteria": 2459,
      "_free": 2460,
      "_Se": 2461,
      "_decrease": 2462,
      "_CT": 2463,
      "rad": 2464,
      "NS": 2465,
      "rect": 2466,
      "_paral": 2467,
      "_Park": 2468,
      "_third": 2469,
      "_atr": 2470,
      "_those": 2471,
      "AG": 2472,
      "tures": 2473,
      "_intrac": 2474,
      "ments": 2475,
      "plied": 2476,
      "_tech": 2477,
      "_HIV": 2478,
      "_commun": 2479,
      "active": 2480,
      "oneph": 2481,
      "_useful": 2482,
      "_light": 2483,
      "_compon": 2484,
      "_sph": 2485,
      "eft": 2486,
      "ote": 2487,
      "_ill": 2488,
      "vir": 2489,
      "_Le": 2490,
      "the": 2491,
      "ophageal": 2492,
      "_So": 2493,
      "De": 2494,
      "vascular": 2495,
      "_inflammation": 2496,
      "_vitamin": 2497,
      "tration": 2498,
      "_contains": 2499,
      "_Res": 2500,
      "_CO": 2501,
      "atus": 2502,
      "_diarr": 2503,
      "hing": 2504,
      "_external": 2505,
      "aring": 2506,
      "piration": 2507,
      "mediate": 2508,
      "_unc": 2509,
      "oses": 2510,
      "arin": 2511,
      "erficial": 2512,
      "_areas": 2513,
      "aph": 2514,
      "lastoma": 2515,
      "ograph": 2516,
      "osin": 2517,
      "_spl": 2518,
      "ets": 2519,
      "_least": 2520,
      "_pattern": 2521,
      "_resistance": 2522,
      "_limb": 2523,
      "_exposure": 2524,
      "ik": 2525,
      "aries": 2526,
      "ycardia": 2527,
      "DI": 2528,
      "_pe": 2529,
      "arynx": 2530,
      "ient": 2531,
      "_For": 2532,
      "_orig": 2533,
      "amic": 2534,
      "cers": 2535,
      "_inves": 2536,
      "aine": 2537,
      "_Syst": 2538,
      "_trauma": 2539,
      "erve": 2540,
      "enosis": 2541,
      "_textbook": 2542,
      "_investig": 2543,
      "Is": 2544,
      "xt": 2545,
      "ength": 2546,
      "Med": 2547,
      "_around": 2548,
      "term": 2549,
      "_develops": 2550,
      "ises": 2551,
      "_reduced": 2552,
      "_hepatic": 2553,
      "_cavity": 2554,
      "_young": 2555,
      "quam": 2556,
      "_ventricular": 2557,
      "ocytosis": 2558,
      "_epithelium": 2559,
      "ibular": 2560,
      "rous": 2561,
      "âĨ": 2562,
      "_abscess": 2563,
      "_identi": 2564,
      "imal": 2565,
      "_intra": 2566,
      "_pub": 2567,
      "resent": 2568,
      "_chann": 2569,
      "_ml": 2570,
      "poral": 2571,
      "fuse": 2572,
      "_considered": 2573,
      "_Am": 2574,
      "_enter": 2575,
      "hal": 2576,
      "_spinal": 2577,
      "_acts": 2578,
      "rag": 2579,
      "owel": 2580,
      "_antibio": 2581,
      "_signs": 2582,
      "titis": 2583,
      "_hair": 2584,
      "esterol": 2585,
      "_responsible": 2586,
      "arian": 2587,
      "_mat": 2588,
      "_followed": 2589,
      "_sac": 2590,
      "_week": 2591,
      "perature": 2592,
      "_typically": 2593,
      "astric": 2594,
      "_even": 2595,
      "eti": 2596,
      "ixed": 2597,
      "_elevated": 2598,
      "_work": 2599,
      "acill": 2600,
      "_made": 2601,
      "ergen": 2602,
      "ria": 2603,
      "_point": 2604,
      "LO": 2605,
      "mission": 2606,
      "ople": 2607,
      "inf": 2608,
      "unctiv": 2609,
      "_reco": 2610,
      "aging": 2611,
      "_diss": 2612,
      "_vaccine": 2613,
      "upture": 2614,
      "_stenosis": 2615,
      "_Y": 2616,
      "_insulin": 2617,
      "otomy": 2618,
      "_significant": 2619,
      "pecially": 2620,
      "_base": 2621,
      "Sh": 2622,
      "ecti": 2623,
      "_ratio": 2624,
      "_bih": 2625,
      "LA": 2626,
      "_recomm": 2627,
      "ergy": 2628,
      "_layer": 2629,
      "_diffic": 2630,
      "_Per": 2631,
      "onate": 2632,
      "_prost": 2633,
      "ared": 2634,
      "_hepatitis": 2635,
      "though": 2636,
      "leep": 2637,
      "_wound": 2638,
      "_lobe": 2639,
      "_chain": 2640,
      "ival": 2641,
      "_sodium": 2642,
      "ptomatic": 2643,
      "_among": 2644,
      "_polyp": 2645,
      "mune": 2646,
      "_When": 2647,
      "like": 2648,
      "Anaesthesia": 2649,
      "Le": 2650,
      "ool": 2651,
      "_adults": 2652,
      "orders": 2653,
      "oscopy": 2654,
      "ocyte": 2655,
      "opaedics": 2656,
      "_Hem": 2657,
      "_Hyper": 2658,
      "atosis": 2659,
      "lig": 2660,
      "_Rob": 2661,
      "_glands": 2662,
      "ura": 2663,
      "_scan": 2664,
      "iel": 2665,
      "arch": 2666,
      "opic": 2667,
      "axis": 2668,
      "_hemat": 2669,
      "gr": 2670,
      "eeth": 2671,
      "version": 2672,
      "_resulting": 2673,
      "aract": 2674,
      "_fibers": 2675,
      "location": 2676,
      "ata": 2677,
      "Miscellaneous": 2678,
      "str": 2679,
      "_hor": 2680,
      "_Pati": 2681,
      "abs": 2682,
      "_alkal": 2683,
      "oh": 2684,
      "_vomiting": 2685,
      "_diabetes": 2686,
      "erum": 2687,
      "aped": 2688,
      "_Type": 2689,
      "dex": 2690,
      "_stomach": 2691,
      "_defined": 2692,
      "_greater": 2693,
      "_incidence": 2694,
      "icient": 2695,
      "ilk": 2696,
      "arily": 2697,
      "_valve": 2698,
      "_findings": 2699,
      "_delivery": 2700,
      "oa": 2701,
      "_slow": 2702,
      "_go": 2703,
      "ensitivity": 2704,
      "irm": 2705,
      "estine": 2706,
      "DT": 2707,
      "_hemorrhage": 2708,
      "_mucosa": 2709,
      "ving": 2710,
      "_:-": 2711,
      "_ey": 2712,
      "_cur": 2713,
      "itor": 2714,
      "_Par": 2715,
      "OC": 2716,
      "ilis": 2717,
      "now": 2718,
      "ove": 2719,
      "_border": 2720,
      "Ar": 2721,
      "ulture": 2722,
      "_lymphoma": 2723,
      "_fing": 2724,
      "posed": 2725,
      "_having": 2726,
      "_uterus": 2727,
      "_Re": 2728,
      "_However": 2729,
      "_important": 2730,
      "_venous": 2731,
      "_nerves": 2732,
      "_hypert": 2733,
      "_inhibitors": 2734,
      "_treated": 2735,
      "_contraction": 2736,
      "_regarding": 2737,
      "_NO": 2738,
      "rown": 2739,
      "lot": 2740,
      "_u": 2741,
      "_sch": 2742,
      "_cerebral": 2743,
      "_spread": 2744,
      "lective": 2745,
      "idal": 2746,
      "Treatment": 2747,
      "_veins": 2748,
      "mitted": 2749,
      "cetyl": 2750,
      "ortic": 2751,
      "_enlarg": 2752,
      "erate": 2753,
      "_systemic": 2754,
      "_marg": 2755,
      "PC": 2756,
      "_adv": 2757,
      "kele": 2758,
      "_Disease": 2759,
      "oea": 2760,
      "ropri": 2761,
      "_sl": 2762,
      "andibular": 2763,
      "irth": 2764,
      "_nucleus": 2765,
      "_surgical": 2766,
      "ulated": 2767,
      "keletal": 2768,
      "_down": 2769,
      "_leading": 2770,
      "_Trans": 2771,
      "yan": 2772,
      "_index": 2773,
      "_breath": 2774,
      "Orth": 2775,
      "_Sch": 2776,
      "anti": 2777,
      "_involves": 2778,
      "lococc": 2779,
      "_subst": 2780,
      "_nasal": 2781,
      "_beta": 2782,
      "_pigment": 2783,
      "ylase": 2784,
      "ycin": 2785,
      "oles": 2786,
      "_Sup": 2787,
      "_cannot": 2788,
      "ode": 2789,
      "Drug": 2790,
      "rel": 2791,
      "_Na": 2792,
      "erved": 2793,
      "PD": 2794,
      "RA": 2795,
      "function": 2796,
      "osc": 2797,
      "othel": 2798,
      "agen": 2799,
      "raw": 2800,
      "ochrom": 2801,
      "_ring": 2802,
      "_located": 2803,
      "_enzymes": 2804,
      "_absence": 2805,
      "ysm": 2806,
      "_diagnostic": 2807,
      "_teeth": 2808,
      "iform": 2809,
      "rit": 2810,
      "_seiz": 2811,
      "_differenti": 2812,
      "_food": 2813,
      "aucoma": 2814,
      "bins": 2815,
      "uous": 2816,
      "_question": 2817,
      "_care": 2818,
      "_subc": 2819,
      "_describ": 2820,
      "_pathway": 2821,
      "aden": 2822,
      "quamous": 2823,
      "Card": 2824,
      "_suc": 2825,
      "_proximal": 2826,
      "_extr": 2827,
      "_chlor": 2828,
      "_metabolism": 2829,
      "onged": 2830,
      "_potential": 2831,
      "SA": 2832,
      "wards": 2833,
      "_suff": 2834,
      "Unknown": 2835,
      "_ple": 2836,
      "_inflammatory": 2837,
      "_techni": 2838,
      "_bowel": 2839,
      "wh": 2840,
      "istent": 2841,
      "eur": 2842,
      "inemia": 2843,
      "imes": 2844,
      "Ig": 2845,
      "_fibrosis": 2846,
      "_mutation": 2847,
      "_motor": 2848,
      "neal": 2849,
      "istration": 2850,
      "_based": 2851,
      "Non": 2852,
      "pa": 2853,
      "_alcohol": 2854,
      "Posterior": 2855,
      "erous": 2856,
      "_alve": 2857,
      "omeg": 2858,
      "_psych": 2859,
      "ferior": 2860,
      "ulum": 2861,
      "_intestinal": 2862,
      "Mal": 2863,
      "_Man": 2864,
      "_arch": 2865,
      "_depression": 2866,
      "_several": 2867,
      "_contraindic": 2868,
      "_swelling": 2869,
      "meter": 2870,
      "ptic": 2871,
      "_half": 2872,
      "_fore": 2873,
      "uss": 2874,
      "_sequ": 2875,
      "âĨĴ": 2876,
      "_higher": 2877,
      "_off": 2878,
      "enta": 2879,
      "_retin": 2880,
      "agn": 2881,
      "_sho": 2882,
      "_poor": 2883,
      "_visual": 2884,
      "aphylococc": 2885,
      "_medicine": 2886,
      "_node": 2887,
      "_excre": 2888,
      "_hypeension": 2889,
      "_susp": 2890,
      "roma": 2891,
      "_rot": 2892,
      "_become": 2893,
      "_facial": 2894,
      "gu": 2895,
      "_inhibitor": 2896,
      "Oste": 2897,
      "_angle": 2898,
      "_structure": 2899,
      "_sam": 2900,
      "_temperature": 2901,
      "onin": 2902,
      "lowing": 2903,
      "mall": 2904,
      "_marrow": 2905,
      "_leg": 2906,
      "_becomes": 2907,
      "_|": 2908,
      "US": 2909,
      "_bilateral": 2910,
      "ased": 2911,
      "Sc": 2912,
      "_End": 2913,
      "_clear": 2914,
      "gin": 2915,
      "Skin": 2916,
      "ourse": 2917,
      "_thus": 2918,
      "_must": 2919,
      "Orthopaedics": 2920,
      "PV": 2921,
      "ished": 2922,
      "arp": 2923,
      "_similar": 2924,
      "_state": 2925,
      "iteria": 2926,
      "_mild": 2927,
      "ropriate": 2928,
      "_recurrent": 2929,
      "otal": 2930,
      "_fatty": 2931,
      "Sp": 2932,
      "trum": 2933,
      "hibition": 2934,
      "lus": 2935,
      "ana": 2936,
      "High": 2937,
      "_et": 2938,
      "_vaginal": 2939,
      "chol": 2940,
      "_Acute": 2941,
      "No": 2942,
      "_Hep": 2943,
      "PH": 2944,
      "auses": 2945,
      "RO": 2946,
      "_cross": 2947,
      "oxin": 2948,
      "Chronic": 2949,
      "_relative": 2950,
      "triction": 2951,
      "_produces": 2952,
      "_origin": 2953,
      "ongue": 2954,
      "uries": 2955,
      "_Sy": 2956,
      "_frequently": 2957,
      "_caps": 2958,
      "_step": 2959,
      "_Ar": 2960,
      "oracic": 2961,
      "_influ": 2962,
      "trans": 2963,
      "_addition": 2964,
      "_ce": 2965,
      "_bab": 2966,
      "kg": 2967,
      "_bul": 2968,
      "_RNA": 2969,
      "_bile": 2970,
      "_urinary": 2971,
      "ying": 2972,
      "orsal": 2973,
      "hritis": 2974,
      "_complication": 2975,
      "_antagon": 2976,
      "SF": 2977,
      "tain": 2978,
      "_Anti": 2979,
      "_por": 2980,
      "_sept": 2981,
      "tron": 2982,
      "_sensitive": 2983,
      "etus": 2984,
      "_using": 2985,
      "OR": 2986,
      "_hall": 2987,
      "ooth": 2988,
      "_dom": 2989,
      "_had": 2990,
      "lusion": 2991,
      "tras": 2992,
      "_conn": 2993,
      "Vitamin": 2994,
      "_sour": 2995,
      "ecting": 2996,
      "_lac": 2997,
      "activ": 2998,
      "_immune": 2999,
      "_sk": 3000,
      "eck": 3001,
      "odes": 3002,
      "udden": 3003,
      "_absent": 3004,
      "_require": 3005,
      "ording": 3006,
      "ump": 3007,
      "chem": 3008,
      "Normal": 3009,
      "_though": 3010,
      "omycin": 3011,
      "lind": 3012,
      "_root": 3013,
      "_tests": 3014,
      "lycer": 3015,
      "_pathology": 3016,
      "_developed": 3017,
      "orr": 3018,
      "_Sp": 3019,
      "_rib": 3020,
      "MA": 3021,
      "iples": 3022,
      "aves": 3023,
      "_face": 3024,
      "_prop": 3025,
      "_intestine": 3026,
      "ympan": 3027,
      "anglion": 3028,
      "_media": 3029,
      "_mainly": 3030,
      "_div": 3031,
      "_distrib": 3032,
      "_presentation": 3033,
      "_ATP": 3034,
      "assium": 3035,
      "Anterior": 3036,
      "_hypot": 3037,
      "_acidosis": 3038,
      "_gest": 3039,
      "yloid": 3040,
      "DH": 3041,
      "iaz": 3042,
      "rinciples": 3043,
      "_palsy": 3044,
      "tle": 3045,
      "_Ap": 3046,
      "aem": 3047,
      "_fasc": 3048,
      "_especially": 3049,
      "CP": 3050,
      "_material": 3051,
      "Ret": 3052,
      "thritis": 3053,
      "_contain": 3054,
      "_difficult": 3055,
      "_colo": 3056,
      "_coun": 3057,
      "_adj": 3058,
      "_bacterial": 3059,
      "_contrac": 3060,
      "ultiple": 3061,
      "_impro": 3062,
      "_procedure": 3063,
      "rup": 3064,
      "_family": 3065,
      "pes": 3066,
      "onary": 3067,
      "_Her": 3068,
      "_cranial": 3069,
      "termin": 3070,
      "_shock": 3071,
      "ocardial": 3072,
      "_infants": 3073,
      "_chromosome": 3074,
      "tility": 3075,
      "ception": 3076,
      "_py": 3077,
      "ituitary": 3078,
      "iph": 3079,
      "_few": 3080,
      "_structures": 3081,
      "_demons": 3082,
      "Respiratory": 3083,
      "itre": 3084,
      "_gu": 3085,
      "uscular": 3086,
      "_elect": 3087,
      "_hemoglobin": 3088,
      "_behav": 3089,
      "_lens": 3090,
      "_microscop": 3091,
      "_Ep": 3092,
      "_duod": 3093,
      "_plex": 3094,
      "_Z": 3095,
      "_diameter": 3096,
      "openia": 3097,
      "_amount": 3098,
      "_birth": 3099,
      "_radiation": 3100,
      "fib": 3101,
      "oly": 3102,
      "_epis": 3103,
      "Aut": 3104,
      "nee": 3105,
      "âĢĻ": 3106,
      "_Diagnosis": 3107,
      "_âĨĴ": 3108,
      "_scre": 3109,
      "_Medical": 3110,
      "_presented": 3111,
      "==": 3112,
      "elan": 3113,
      "ressed": 3114,
      "iosis": 3115,
      "amm": 3116,
      "ED": 3117,
      "_indicated": 3118,
      "_mother": 3119,
      "land": 3120,
      "_gastro": 3121,
      "betic": 3122,
      "atase": 3123,
      "tention": 3124,
      "_te": 3125,
      "Ap": 3126,
      "_pep": 3127,
      "_absorption": 3128,
      "Re": 3129,
      "eff": 3130,
      "_disch": 3131,
      "For": 3132,
      "esthetic": 3133,
      "aray": 3134,
      "_Met": 3135,
      "_Syndrome": 3136,
      "Ind": 3137,
      "_four": 3138,
      "mm": 3139,
      "_appears": 3140,
      "sed": 3141,
      "avenous": 3142,
      "_progressive": 3143,
      "ergency": 3144,
      "_soft": 3145,
      "_therefore": 3146,
      "_nit": 3147,
      "_length": 3148,
      "Endoc": 3149,
      "eat": 3150,
      "_value": 3151,
      "_count": 3152,
      "ences": 3153,
      "_bones": 3154,
      "_Sub": 3155,
      "ellow": 3156,
      "_abdomen": 3157,
      "ontaneous": 3158,
      "_performed": 3159,
      "astic": 3160,
      "_vision": 3161,
      "_sound": 3162,
      "Meth": 3163,
      "cending": 3164,
      "RNA": 3165,
      "izing": 3166,
      "afe": 3167,
      "icin": 3168,
      "_were": 3169,
      "_Drug": 3170,
      "thro": 3171,
      "times": 3172,
      "Dis": 3173,
      "_proble": 3174,
      "_Rec": 3175,
      "_ca": 3176,
      "_role": 3177,
      "_tooth": 3178,
      "_adult": 3179,
      "_avail": 3180,
      "inated": 3181,
      "_tuberculosis": 3182,
      "Pl": 3183,
      "ires": 3184,
      "_white": 3185,
      "ipid": 3186,
      "ided": 3187,
      "_example": 3188,
      "apse": 3189,
      "_contact": 3190,
      "_abnormalities": 3191,
      "oler": 3192,
      "_paralysis": 3193,
      "iological": 3194,
      "ypt": 3195,
      "ophren": 3196,
      "_arm": 3197,
      "CH": 3198,
      "_help": 3199,
      "_identif": 3200,
      "_agg": 3201,
      "_them": 3202,
      "_metabolic": 3203,
      "lying": 3204,
      "_marked": 3205,
      "umin": 3206,
      "ured": 3207,
      "onephritis": 3208,
      "_adrenal": 3209,
      "_paras": 3210,
      "_individuals": 3211,
      "_pup": 3212,
      "_System": 3213,
      "pecific": 3214,
      "_Normal": 3215,
      "AT": 3216,
      "_Mal": 3217,
      "rain": 3218,
      "_endometr": 3219,
      "_plexus": 3220,
      "irub": 3221,
      "_tongue": 3222,
      "_people": 3223,
      "entilation": 3224,
      "ST": 3225,
      "_Un": 3226,
      "_studies": 3227,
      "_bind": 3228,
      "urb": 3229,
      "onad": 3230,
      "lla": 3231,
      "_means": 3232,
      "_cataract": 3233,
      "gia": 3234,
      "uman": 3235,
      "_uterine": 3236,
      "hydrogen": 3237,
      "_Robbins": 3238,
      "_culture": 3239,
      "_Red": 3240,
      "_recommended": 3241,
      "orax": 3242,
      "_attac": 3243,
      "ield": 3244,
      "unk": 3245,
      "ilirub": 3246,
      "angi": 3247,
      "ton": 3248,
      "_ess": 3249,
      "_foot": 3250,
      "_derived": 3251,
      "oidal": 3252,
      "_junction": 3253,
      "phrag": 3254,
      "_standard": 3255,
      "_milk": 3256,
      "_fall": 3257,
      "_polym": 3258,
      "Me": 3259,
      "evere": 3260,
      "_rupture": 3261,
      "_decreases": 3262,
      "sequ": 3263,
      "_myelo": 3264,
      "opt": 3265,
      "cep": 3266,
      "_Is": 3267,
      "_separ": 3268,
      "ulitis": 3269,
      "ather": 3270,
      "intestinal": 3271,
      "osterone": 3272,
      "izophren": 3273,
      "ospital": 3274,
      "ings": 3275,
      "cephal": 3276,
      "Common": 3277,
      "ximately": 3278,
      "Se": 3279,
      "lav": 3280,
      "_possible": 3281,
      "_near": 3282,
      "_tes": 3283,
      "ensity": 3284,
      "_degree": 3285,
      "econdary": 3286,
      "_assess": 3287,
      "_pH": 3288,
      "Her": 3289,
      "_Dec": 3290,
      "phragm": 3291,
      "_times": 3292,
      "_wr": 3293,
      "osal": 3294,
      "_relax": 3295,
      "actor": 3296,
      "_evidence": 3297,
      "_open": 3298,
      "_sti": 3299,
      "_Ther": 3300,
      "ullary": 3301,
      "ubation": 3302,
      "guinal": 3303,
      ".\"": 3304,
      "_hernia": 3305,
      "_prognosis": 3306,
      "_mouth": 3307,
      "Neuro": 3308,
      "_ra": 3309,
      "On": 3310,
      "_cholesterol": 3311,
      "_taken": 3312,
      "ND": 3313,
      "_epithelial": 3314,
      "_sleep": 3315,
      "anced": 3316,
      "_genetic": 3317,
      "lycemia": 3318,
      "_binding": 3319,
      "eta": 3320,
      "_reduction": 3321,
      "jection": 3322,
      "oking": 3323,
      "amb": 3324,
      "_agon": 3325,
      "_underg": 3326,
      "Cor": 3327,
      "ateg": 3328,
      "_eval": 3329,
      "_diagnosed": 3330,
      "omegaly": 3331,
      "ectious": 3332,
      "ulate": 3333,
      "_host": 3334,
      "ising": 3335,
      "ips": 3336,
      "Decreased": 3337,
      "thma": 3338,
      "_induced": 3339,
      "_antic": 3340,
      "_duration": 3341,
      "_weakness": 3342,
      "_transmission": 3343,
      "reast": 3344,
      "_fron": 3345,
      "_symp": 3346,
      "_She": 3347,
      "athic": 3348,
      "heumat": 3349,
      "_alpha": 3350,
      "_sperm": 3351,
      "_complications": 3352,
      "rest": 3353,
      "_contrast": 3354,
      "_trig": 3355,
      "pper": 3356,
      "amen": 3357,
      "_situ": 3358,
      "acity": 3359,
      "_energy": 3360,
      "oglob": 3361,
      "ends": 3362,
      "ociated": 3363,
      "_palp": 3364,
      "_dysfunction": 3365,
      "_acting": 3366,
      "_hepat": 3367,
      "_lact": 3368,
      "_phosphate": 3369,
      "_REF": 3370,
      "ements": 3371,
      "ogenous": 3372,
      "hin": 3373,
      "aff": 3374,
      "_rise": 3375,
      "Bacter": 3376,
      "_Hg": 3377,
      "_demonstr": 3378,
      "hydrogenase": 3379,
      "_sites": 3380,
      "_infil": 3381,
      "_infant": 3382,
      "_transfer": 3383,
      "_optic": 3384,
      "ching": 3385,
      "lucose": 3386,
      "_containing": 3387,
      "aund": 3388,
      "_pseud": 3389,
      "phyl": 3390,
      "_Non": 3391,
      "izophrenia": 3392,
      "utroph": 3393,
      "_molecules": 3394,
      "_physical": 3395,
      "_maximum": 3396,
      "_medium": 3397,
      "ET": 3398,
      "_Increased": 3399,
      "_Disorders": 3400,
      "_fung": 3401,
      "plication": 3402,
      "oz": 3403,
      "vol": 3404,
      "_rash": 3405,
      "orrhag": 3406,
      "_tach": 3407,
      "ering": 3408,
      "_investigation": 3409,
      "_defects": 3410,
      "_diarrhea": 3411,
      "_Pa": 3412,
      "ably": 3413,
      "_esophagus": 3414,
      "throm": 3415,
      "_Fe": 3416,
      "_fetus": 3417,
      "_genital": 3418,
      "_nerv": 3419,
      "PA": 3420,
      "them": 3421,
      "immune": 3422,
      "iovascular": 3423,
      "ayed": 3424,
      "_minutes": 3425,
      "sh": 3426,
      "_gram": 3427,
      "iple": 3428,
      "entricular": 3429,
      "_viral": 3430,
      "ymptomatic": 3431,
      "_pelvis": 3432,
      "Lymph": 3433,
      "oxide": 3434,
      "_hypoth": 3435,
      "_females": 3436,
      "_treat": 3437,
      "_orb": 3438,
      "_consists": 3439,
      "_reveals": 3440,
      "_options": 3441,
      "hood": 3442,
      "_leukemia": 3443,
      "_replac": 3444,
      "ontin": 3445,
      "_generally": 3446,
      "ded": 3447,
      "gi": 3448,
      "rinology": 3449,
      "ey": 3450,
      "_da": 3451,
      "_anatomy": 3452,
      "ocaine": 3453,
      "_toxicity": 3454,
      "dis": 3455,
      "_previous": 3456,
      "Blood": 3457,
      "_benign": 3458,
      "_prem": 3459,
      "_hyperplasia": 3460,
      "gestive": 3461,
      "enum": 3462,
      "_hydrox": 3463,
      "_infarc": 3464,
      "olol": 3465,
      "_prolif": 3466,
      "_available": 3467,
      "_encephal": 3468,
      "rotic": 3469,
      "irrh": 3470,
      "What": 3471,
      "_branches": 3472,
      "atis": 3473,
      "gno": 3474,
      "_rapidly": 3475,
      "_output": 3476,
      "IT": 3477,
      "Primary": 3478,
      "Sch": 3479,
      "otrop": 3480,
      "_drain": 3481,
      "_criteria": 3482,
      "titial": 3483,
      "generation": 3484,
      "_administration": 3485,
      "ta": 3486,
      "Rec": 3487,
      "iam": 3488,
      "_indicates": 3489,
      "_rece": 3490,
      "_always": 3491,
      "anine": 3492,
      "_glomerul": 3493,
      "eal": 3494,
      "_sexual": 3495,
      "_labor": 3496,
      "ators": 3497,
      "_fer": 3498,
      "aundice": 3499,
      "IP": 3500,
      "enicillin": 3501,
      "_Or": 3502,
      "_inhibits": 3503,
      "Clinical": 3504,
      "olism": 3505,
      "gg": 3506,
      "onium": 3507,
      "rophages": 3508,
      "_discharge": 3509,
      "ellar": 3510,
      "_avoid": 3511,
      "agul": 3512,
      "_etc": 3513,
      "My": 3514,
      "Post": 3515,
      "_tw": 3516,
      "aged": 3517,
      "_-->": 3518,
      "operative": 3519,
      "_physiology": 3520,
      "AB": 3521,
      "_last": 3522,
      "_technique": 3523,
      "therapy": 3524,
      "_joints": 3525,
      "gans": 3526,
      "led": 3527,
      "born": 3528,
      "iley": 3529,
      "Eds": 3530,
      "_frag": 3531,
      "lf": 3532,
      "Ear": 3533,
      "uted": 3534,
      "mg": 3535,
      "_ventricle": 3536,
      "odil": 3537,
      "_deform": 3538,
      "ersensitivity": 3539,
      "_social": 3540,
      "_ect": 3541,
      "_interc": 3542,
      "Calc": 3543,
      "_poly": 3544,
      "_aneur": 3545,
      "ovirus": 3546,
      "_accum": 3547,
      "atation": 3548,
      "rex": 3549,
      "idity": 3550,
      "itoneal": 3551,
      "_ven": 3552,
      "_diet": 3553,
      "ics": 3554,
      "_erythem": 3555,
      "_conjunctiv": 3556,
      "roc": 3557,
      "reptococcus": 3558,
      "_superficial": 3559,
      "LOG": 3560,
      "_spot": 3561,
      "_mental": 3562,
      "_association": 3563,
      "_inher": 3564,
      "_MC": 3565,
      "lur": 3566,
      "_determin": 3567,
      "_High": 3568,
      "_infected": 3569,
      "_ovarian": 3570,
      "Cl": 3571,
      "orrhea": 3572,
      "_source": 3573,
      "ensor": 3574,
      "_seizures": 3575,
      "ilic": 3576,
      "_illness": 3577,
      "asm": 3578,
      "_ureth": 3579,
      "iomy": 3580,
      "_TB": 3581,
      "_divid": 3582,
      "SD": 3583,
      "com": 3584,
      "Lateral": 3585,
      "_bur": 3586,
      "_predom": 3587,
      "phrine": 3588,
      "_estrogen": 3589,
      "acin": 3590,
      "_wide": 3591,
      "_lungs": 3592,
      "Endocrinology": 3593,
      "_false": 3594,
      "_Thus": 3595,
      "_injection": 3596,
      "ida": 3597,
      "ignant": 3598,
      "ction": 3599,
      "_sudden": 3600,
      "day": 3601,
      "ude": 3602,
      "_pancreatic": 3603,
      "_Chronic": 3604,
      "_undergo": 3605,
      "_baby": 3606,
      "omon": 3607,
      "otoxic": 3608,
      "_elec": 3609,
      "viron": 3610,
      "HO": 3611,
      "aste": 3612,
      "roll": 3613,
      "_order": 3614,
      "orbed": 3615,
      "_granulom": 3616,
      "cious": 3617,
      "icard": 3618,
      "_doses": 3619,
      "plete": 3620,
      "actures": 3621,
      "ylor": 3622,
      "_thrombosis": 3623,
      "_paren": 3624,
      "_simple": 3625,
      "_dehydrogenase": 3626,
      "tained": 3627,
      "formation": 3628,
      "_reduce": 3629,
      "_Blood": 3630,
      "TB": 3631,
      "ailey": 3632,
      "_reactions": 3633,
      "lock": 3634,
      "_transpo": 3635,
      "king": 3636,
      "_primarily": 3637,
      "arf": 3638,
      "idase": 3639,
      "Renal": 3640,
      "ermal": 3641,
      "_glaucoma": 3642,
      "zyme": 3643,
      "_Lymph": 3644,
      "_initial": 3645,
      "ference": 3646,
      "_stimulation": 3647,
      "_circulation": 3648,
      "astoid": 3649,
      "If": 3650,
      "_another": 3651,
      "_injuries": 3652,
      "_top": 3653,
      "_increasing": 3654,
      "_pancreas": 3655,
      "_later": 3656,
      "arayan": 3657,
      "SS": 3658,
      "obacter": 3659,
      "heumatoid": 3660,
      "_allow": 3661,
      "III": 3662,
      "_Gen": 3663,
      "_percent": 3664,
      "_highly": 3665,
      "osus": 3666,
      "_fibres": 3667,
      "_carotid": 3668,
      "_set": 3669,
      "Fib": 3670,
      "rot": 3671,
      "_medic": 3672,
      "_BP": 3673,
      "_component": 3674,
      "Red": 3675,
      "raft": 3676,
      "_cystic": 3677,
      "_anomal": 3678,
      "_paicular": 3679,
      "_aeries": 3680,
      "regular": 3681,
      "_appropriate": 3682,
      "_operation": 3683,
      "peri": 3684,
      "quate": 3685,
      "_dominant": 3686,
      "yruv": 3687,
      "_dyst": 3688,
      "_hyd": 3689,
      "_IU": 3690,
      "_Ret": 3691,
      "onatal": 3692,
      "vironment": 3693,
      "_varia": 3694,
      "oblastic": 3695,
      "_transplant": 3696,
      "racture": 3697,
      "_sensory": 3698,
      "_dim": 3699,
      "_tri": 3700,
      "epend": 3701,
      "_fist": 3702,
      "_placenta": 3703,
      "_ile": 3704,
      "opper": 3705,
      "_RBC": 3706,
      "_nose": 3707,
      "Ab": 3708,
      "bohyd": 3709,
      "_mediated": 3710,
      "_Def": 3711,
      "acial": 3712,
      "Right": 3713,
      "asive": 3714,
      "_dev": 3715,
      "Ul": 3716,
      "_now": 3717,
      "_duc": 3718,
      "pg": 3719,
      "Left": 3720,
      "_section": 3721,
      "_retinal": 3722,
      ".-": 3723,
      "ossa": 3724,
      "_communic": 3725,
      "_smooth": 3726,
      "_dependent": 3727,
      "_distribution": 3728,
      "_che": 3729,
      "_hormon": 3730,
      "_refers": 3731,
      "_gall": 3732,
      "âĢ¢": 3733,
      "_contraindicated": 3734,
      "ipit": 3735,
      "_resid": 3736,
      "_sclerosis": 3737,
      "There": 3738,
      "ancre": 3739,
      "sin": 3740,
      "LOGY": 3741,
      "_endothel": 3742,
      "_recessive": 3743,
      "_minor": 3744,
      "oimmune": 3745,
      "raz": 3746,
      "Low": 3747,
      "_radio": 3748,
      "_supplied": 3749,
      "_#": 3750,
      "_lies": 3751,
      "aces": 3752,
      "_inguinal": 3753,
      "osinophil": 3754,
      "_essential": 3755,
      "ked": 3756,
      "_hospital": 3757,
      "sor": 3758,
      "_HB": 3759,
      "ocarditis": 3760,
      "_Pl": 3761,
      "insic": 3762,
      "_emergency": 3763,
      "_statements": 3764,
      "amus": 3765,
      "_Hb": 3766,
      "_opening": 3767,
      "Tub": 3768,
      "sp": 3769,
      "DITION": 3770,
      "Liver": 3771,
      "ques": 3772,
      "_gives": 3773,
      "ecause": 3774,
      "_stain": 3775,
      "_involving": 3776,
      "Phen": 3777,
      "SG": 3778,
      "plies": 3779,
      "_saliv": 3780,
      "ened": 3781,
      "teb": 3782,
      "olin": 3783,
      "esterone": 3784,
      "unts": 3785,
      "_perfor": 3786,
      "_males": 3787,
      "anus": 3788,
      "_directly": 3789,
      "abl": 3790,
      "Ag": 3791,
      "anong": 3792,
      "_organs": 3793,
      "_Me": 3794,
      "yruvate": 3795,
      "_coronary": 3796,
      "Not": 3797,
      "_necess": 3798,
      "_Patients": 3799,
      "aric": 3800,
      "arget": 3801,
      "sc": 3802,
      "lear": 3803,
      "_every": 3804,
      "_ket": 3805,
      "\".": 3806,
      "_obj": 3807,
      "_surround": 3808,
      "tur": 3809,
      "_il": 3810,
      "_shown": 3811,
      "apeu": 3812,
      "_thin": 3813,
      "ocl": 3814,
      "_maternal": 3815,
      "_retard": 3816,
      "_mitochond": 3817,
      "_close": 3818,
      "_antibiotics": 3819,
      "_Ab": 3820,
      "_cervix": 3821,
      "opia": 3822,
      "_since": 3823,
      "irrhosis": 3824,
      "_spine": 3825,
      "_headache": 3826,
      "_manifestations": 3827,
      "xi": 3828,
      "_dislocation": 3829,
      "_atrophy": 3830,
      "uscle": 3831,
      "_shoulder": 3832,
      "_confirm": 3833,
      "_sulf": 3834,
      "_pelvic": 3835,
      "lets": 3836,
      "agulation": 3837,
      "_stress": 3838,
      "_knee": 3839,
      "iod": 3840,
      "aling": 3841,
      "_mur": 3842,
      "_bro": 3843,
      "aris": 3844,
      "ulating": 3845,
      "_hip": 3846,
      "rence": 3847,
      "_described": 3848,
      "_flo": 3849,
      "_enc": 3850,
      "Metabol": 3851,
      "_next": 3852,
      "_malignancy": 3853,
      "_expl": 3854,
      "Immun": 3855,
      "oscopic": 3856,
      "_course": 3857,
      "_groups": 3858,
      "_carcin": 3859,
      "_wave": 3860,
      "_Internal": 3861,
      "_March": 3862,
      "_organisms": 3863,
      "_know": 3864,
      "achment": 3865,
      "ranulo": 3866,
      "_hypog": 3867,
      "ern": 3868,
      "_thoracic": 3869,
      "Inter": 3870,
      "_ans": 3871,
      "_Principles": 3872,
      "enstr": 3873,
      "gnostic": 3874,
      "ulus": 3875,
      "resp": 3876,
      "_sympathetic": 3877,
      "Both": 3878,
      "inent": 3879,
      "_spontaneous": 3880,
      "_kerat": 3881,
      "_solution": 3882,
      "_fill": 3883,
      "_ion": 3884,
      "_prolonged": 3885,
      "sulin": 3886,
      "_drop": 3887,
      "rowth": 3888,
      "tructive": 3889,
      "_skull": 3890,
      "abd": 3891,
      "oplasmic": 3892,
      "_Health": 3893,
      "_ke": 3894,
      "osomes": 3895,
      "_circum": 3896,
      "....": 3897,
      "ilization": 3898,
      "uit": 3899,
      "illo": 3900,
      "enc": 3901,
      "_late": 3902,
      "_trunk": 3903,
      "azine": 3904,
      "lux": 3905,
      "PG": 3906,
      "ureus": 3907,
      "trasound": 3908,
      "_hypertension": 3909,
      "acet": 3910,
      "_contracep": 3911,
      "_femoral": 3912,
      "_activation": 3913,
      "_sometimes": 3914,
      "_detect": 3915,
      "_CSF": 3916,
      "ilirubin": 3917,
      "_inn": 3918,
      "_various": 3919,
      "vered": 3920,
      "_scler": 3921,
      "_angi": 3922,
      "UR": 3923,
      "isc": 3924,
      "osarcoma": 3925,
      "_CNS": 3926,
      "_alveolar": 3927,
      "_tympan": 3928,
      "uclear": 3929,
      "To": 3930,
      "_much": 3931,
      "cular": 3932,
      "_enh": 3933,
      "reen": 3934,
      "_Surgery": 3935,
      "_prevention": 3936,
      "ervation": 3937,
      "oxy": 3938,
      "ulla": 3939,
      "ocrine": 3940,
      "Abs": 3941,
      "Mid": 3942,
      "_typical": 3943,
      "_past": 3944,
      "Max": 3945,
      "ping": 3946,
      "_But": 3947,
      "rosy": 3948,
      "ophy": 3949,
      "ister": 3950,
      "_EDITION": 3951,
      "_phenomen": 3952,
      "yle": 3953,
      "_Inter": 3954,
      "_movements": 3955,
      "upus": 3956,
      "lique": 3957,
      "_good": 3958,
      "_almost": 3959,
      "_repair": 3960,
      "Superior": 3961,
      "LL": 3962,
      "_vul": 3963,
      "ellitus": 3964,
      "_metastasis": 3965,
      "_ahritis": 3966,
      "_Meth": 3967,
      "_infarction": 3968,
      "_eas": 3969,
      "ibr": 3970,
      "_screening": 3971,
      "mb": 3972,
      "edema": 3973,
      "logy": 3974,
      "_fossa": 3975,
      "iad": 3976,
      "_princ": 3977,
      "_inhibition": 3978,
      "_veeb": 3979,
      "onomic": 3980,
      "AGE": 3981,
      "_glut": 3982,
      "_cough": 3983,
      "_smear": 3984,
      "_rarely": 3985,
      "HC": 3986,
      "IDS": 3987,
      "Other": 3988,
      "editary": 3989,
      "Pulmonary": 3990,
      "organ": 3991,
      "rophic": 3992,
      "_requires": 3993,
      "_whereas": 3994,
      "inephrine": 3995,
      "enza": 3996,
      "_lep": 3997,
      "_hence": 3998,
      "_hearing": 3999,
      "ausea": 4000,
      "_tib": 4001,
      "_diaphragm": 4002,
      "_option": 4003,
      "ympathetic": 4004,
      "_stones": 4005,
      "ladder": 4006,
      "ilial": 4007,
      "char": 4008,
      "_affects": 4009,
      "_status": 4010,
      "_purp": 4011,
      "acy": 4012,
      "ypical": 4013,
      "ony": 4014,
      "chym": 4015,
      "_Hist": 4016,
      "_Neuro": 4017,
      "Occ": 4018,
      "draw": 4019,
      "ymptoms": 4020,
      "_tendon": 4021,
      "osclerosis": 4022,
      "_transmitted": 4023,
      "_fascia": 4024,
      "atology": 4025,
      "_view": 4026,
      "gnancy": 4027,
      "_earli": 4028,
      "phosphate": 4029,
      "lurane": 4030,
      "by": 4031,
      "_symptom": 4032,
      "_daily": 4033,
      "Col": 4034,
      "yros": 4035,
      "ogram": 4036,
      "_Cor": 4037,
      "quired": 4038,
      "iotic": 4039,
      "_toxin": 4040,
      "_approximately": 4041,
      "_combination": 4042,
      "_Cr": 4043,
      "ormation": 4044,
      "Chem": 4045,
      "_pancreatitis": 4046,
      "ocytic": 4047,
      "rob": 4048,
      "erase": 4049,
      "teins": 4050,
      "_mean": 4051,
      "aryng": 4052,
      "_divided": 4053,
      "resence": 4054,
      "_normally": 4055,
      "_pas": 4056,
      "loss": 4057,
      "_Card": 4058,
      "_strong": 4059,
      "Del": 4060,
      "_Ganong": 4061,
      "_range": 4062,
      "dl": 4063,
      "ml": 4064,
      "inine": 4065,
      "_you": 4066,
      "opharyngeal": 4067,
      "_channel": 4068,
      "aphylococcus": 4069,
      "ancer": 4070,
      "vern": 4071,
      "_species": 4072,
      "icle": 4073,
      "ervical": 4074,
      "istered": 4075,
      "try": 4076,
      "iopathic": 4077,
      "abies": 4078,
      "_extra": 4079,
      "_Ess": 4080,
      "_disturb": 4081,
      "_neurolog": 4082,
      "_nervous": 4083,
      "_Primary": 4084,
      "hyp": 4085,
      "_bacill": 4086,
      "_ischem": 4087,
      "ives": 4088,
      "_pituitary": 4089,
      "osine": 4090,
      "_remains": 4091,
      "Aden": 4092,
      "imester": 4093,
      "_interval": 4094,
      "_isol": 4095,
      "_laryngeal": 4096,
      "ostal": 4097,
      "olec": 4098,
      "_sem": 4099,
      "_femur": 4100,
      "_blind": 4101,
      "_Renal": 4102,
      "posite": 4103,
      "_acetyl": 4104,
      "_potassium": 4105,
      "_MRI": 4106,
      "_short": 4107,
      "gestion": 4108,
      "_Bailey": 4109,
      "Hist": 4110,
      "_Ag": 4111,
      "_what": 4112,
      "asting": 4113,
      "_To": 4114,
      "_chemotherapy": 4115,
      "_collagen": 4116,
      "_lymphocytes": 4117,
      "_Pgno": 4118,
      "_cutaneous": 4119,
      "_lit": 4120,
      "_frequent": 4121,
      "emph": 4122,
      "AP": 4123,
      "xiety": 4124,
      "_My": 4125,
      "_genes": 4126,
      "_surv": 4127,
      "_force": 4128,
      "_proper": 4129,
      "ypes": 4130,
      "oration": 4131,
      "_prophyl": 4132,
      "lie": 4133,
      "_bic": 4134,
      "_colum": 4135,
      "He": 4136,
      "RS": 4137,
      "athi": 4138,
      "_pan": 4139,
      "iving": 4140,
      "_calcification": 4141,
      "absorption": 4142,
      "gram": 4143,
      "_mak": 4144,
      "_observed": 4145,
      "_;": 4146,
      "iol": 4147,
      "ontal": 4148,
      "ulph": 4149,
      "_meningitis": 4150,
      "_swe": 4151,
      "_preferred": 4152,
      "_removal": 4153,
      "_Pg": 4154,
      "_Rad": 4155,
      "_ulcers": 4156,
      "ositive": 4157,
      "_cellular": 4158,
      "Pati": 4159,
      "roke": 4160,
      "_however": 4161,
      "_Cl": 4162,
      "_asp": 4163,
      "alact": 4164,
      "_skeletal": 4165,
      "_give": 4166,
      "_contrib": 4167,
      "_mig": 4168,
      "idium": 4169,
      "_recogn": 4170,
      "eated": 4171,
      "apeutic": 4172,
      "_diffuse": 4173,
      "_Ass": 4174,
      "_jaundice": 4175,
      "_fractures": 4176,
      "_nuclei": 4177,
      "orrhagic": 4178,
      "rial": 4179,
      "_sarcoma": 4180,
      "_referred": 4181,
      "Def": 4182,
      "athyroidism": 4183,
      "_reveal": 4184,
      "ervous": 4185,
      "_tachycardia": 4186,
      "lev": 4187,
      "Congenital": 4188,
      "_murm": 4189,
      "_phenomenon": 4190,
      "Intr": 4191,
      "lasts": 4192,
      "_molar": 4193,
      "_hy": 4194,
      "bow": 4195,
      "ocarcinoma": 4196,
      "_Infection": 4197,
      "icles": 4198,
      "_Abs": 4199,
      "istal": 4200,
      "_aureus": 4201,
      "_defin": 4202,
      "_excretion": 4203,
      "_removed": 4204,
      "_behavior": 4205,
      "_gir": 4206,
      "_capacity": 4207,
      "_prior": 4208,
      "_atrial": 4209,
      "bumin": 4210,
      "xia": 4211,
      "_With": 4212,
      "choline": 4213,
      "_rotation": 4214,
      "loid": 4215,
      "_neurons": 4216,
      "emphig": 4217,
      "_bond": 4218,
      "_content": 4219,
      "_Vitamin": 4220,
      "_maxillary": 4221,
      "mediately": 4222,
      "sually": 4223,
      "_Tum": 4224,
      "_blue": 4225,
      "okal": 4226,
      "_platelet": 4227,
      "aline": 4228,
      "ickle": 4229,
      "_place": 4230,
      "ushing": 4231,
      "_corneal": 4232,
      "_IgG": 4233,
      "aemia": 4234,
      "apar": 4235,
      "_resistant": 4236,
      "_capsule": 4237,
      "iant": 4238,
      "eds": 4239,
      "inous": 4240,
      "_osm": 4241,
      "_answer": 4242,
      "Man": 4243,
      "ift": 4244,
      "inson": 4245,
      "dL": 4246,
      "_stool": 4247,
      "_compared": 4248,
      "_Both": 4249,
      "_trimester": 4250,
      "_temporal": 4251,
      "ependent": 4252,
      "versible": 4253,
      "_estim": 4254,
      "_presenting": 4255,
      "_lipid": 4256,
      "zing": 4257,
      "_bound": 4258,
      "_developing": 4259,
      "_pregnant": 4260,
      "opamine": 4261,
      "_cysts": 4262,
      "_macrophages": 4263,
      "_dorsal": 4264,
      "_Some": 4265,
      "_Common": 4266,
      "_cal": 4267,
      "_autosomal": 4268,
      "Epid": 4269,
      "iro": 4270,
      "_terminal": 4271,
      "yster": 4272,
      "_lack": 4273,
      "omyel": 4274,
      "_finger": 4275,
      "They": 4276,
      "_larg": 4277,
      "Pseud": 4278,
      "Inferior": 4279,
      "ollowing": 4280,
      "_comes": 4281,
      "_frequency": 4282,
      "_shaped": 4283,
      "mic": 4284,
      "_After": 4285,
      "obic": 4286,
      "_margin": 4287,
      "CC": 4288,
      "Head": 4289,
      "Op": 4290,
      "_whe": 4291,
      "tase": 4292,
      "_Microbiology": 4293,
      "_excessive": 4294,
      "crip": 4295,
      "REF": 4296,
      "_suggests": 4297,
      "osum": 4298,
      "_retardation": 4299,
      "ulatory": 4300,
      "Str": 4301,
      "_molecule": 4302,
      "_establ": 4303,
      "_necessary": 4304,
      "_Aut": 4305,
      "ML": 4306,
      "ai": 4307,
      "ocytopenia": 4308,
      "_better": 4309,
      "_probable": 4310,
      "atur": 4311,
      "off": 4312,
      "_melan": 4313,
      "_squamous": 4314,
      "tice": 4315,
      "verage": 4316,
      "_predominant": 4317,
      "_Tub": 4318,
      "_link": 4319,
      "_Ear": 4320,
      "_halluc": 4321,
      "_sensitivity": 4322,
      "_creat": 4323,
      "cele": 4324,
      "Carb": 4325,
      "_asthma": 4326,
      "Small": 4327,
      "tile": 4328,
      "_fistula": 4329,
      "_IN": 4330,
      "omonas": 4331,
      "Cr": 4332,
      "_aud": 4333,
      "but": 4334,
      "_inters": 4335,
      "acchar": 4336,
      "_self": 4337,
      "_until": 4338,
      "_nodules": 4339,
      "_airway": 4340,
      "EX": 4341,
      "_narrow": 4342,
      "used": 4343,
      "odine": 4344,
      "IL": 4345,
      "_mellitus": 4346,
      "emporal": 4347,
      "_eyes": 4348,
      "_chor": 4349,
      "_complement": 4350,
      "ipheral": 4351,
      "position": 4352,
      "_fibrin": 4353,
      "anation": 4354,
      "ocon": 4355,
      "_)": 4356,
      "_ventilation": 4357,
      "opor": 4358,
      "_monitor": 4359,
      "_sensation": 4360,
      "_ophthalm": 4361,
      "DNA": 4362,
      "_heat": 4363,
      "alamus": 4364,
      "_tear": 4365,
      "imen": 4366,
      "theria": 4367,
      "_Sept": 4368,
      "_blockers": 4369,
      "ANS": 4370,
      "_raised": 4371,
      "oprotein": 4372,
      "_asymptomatic": 4373,
      "_degeneration": 4374,
      "oblastoma": 4375,
      "ills": 4376,
      "enteric": 4377,
      "_lob": 4378,
      "_statement": 4379,
      "_attack": 4380,
      "Dif": 4381,
      "GF": 4382,
      "plement": 4383,
      "_%": 4384,
      "_ganglion": 4385,
      "_Pulmonary": 4386,
      "_ach": 4387,
      "_muscular": 4388,
      "iii": 4389,
      "ococcus": 4390,
      "_elim": 4391,
      "Upper": 4392,
      "jun": 4393,
      "iable": 4394,
      "_diabetic": 4395,
      "_deposition": 4396,
      "ographic": 4397,
      ");": 4398,
      "otype": 4399,
      "Hydro": 4400,
      "_inhal": 4401,
      "roup": 4402,
      "_band": 4403,
      "_Col": 4404,
      "_classification": 4405,
      "oxia": 4406,
      "_palate": 4407,
      "resents": 4408,
      "_hypersensitivity": 4409,
      "So": 4410,
      "con": 4411,
      "_Di": 4412,
      "_suspected": 4413,
      "_stages": 4414,
      "_transverse": 4415,
      "Reference": 4416,
      "_cornea": 4417,
      "_triang": 4418,
      "_mand": 4419,
      "_intravenous": 4420,
      "erus": 4421,
      "ored": 4422,
      "_Immun": 4423,
      "tes": 4424,
      "_manifestation": 4425,
      "ius": 4426,
      "_kinase": 4427,
      "_detected": 4428,
      "_relatively": 4429,
      "++": 4430,
      "trical": 4431,
      "_cryst": 4432,
      "ouse": 4433,
      "isting": 4434,
      "irs": 4435,
      "reng": 4436,
      "Pol": 4437,
      "thyl": 4438,
      "_lumb": 4439,
      "_secreted": 4440,
      "ream": 4441,
      "_intake": 4442,
      "_arthritis": 4443,
      "_Class": 4444,
      "_extension": 4445,
      "_adenoma": 4446,
      "_intracellular": 4447,
      "_underlying": 4448,
      "_mutations": 4449,
      "_enti": 4450,
      "_tender": 4451,
      "_extrem": 4452,
      "_DM": 4453,
      "_We": 4454,
      "Ca": 4455,
      "arv": 4456,
      "thers": 4457,
      "_abnormality": 4458,
      "_oblique": 4459,
      "_producing": 4460,
      "_marker": 4461,
      "When": 4462,
      "lection": 4463,
      "_impair": 4464,
      "_aoic": 4465,
      "arium": 4466,
      "uscep": 4467,
      "ominal": 4468,
      "_Occ": 4469,
      "_compression": 4470,
      "lan": 4471,
      "_ureter": 4472,
      "_Diseases": 4473,
      "_deformity": 4474,
      "na": 4475,
      "_compound": 4476,
      "uric": 4477,
      "_Post": 4478,
      "_myocardial": 4479,
      "heumatic": 4480,
      "_electro": 4481,
      "take": 4482,
      "_aneurysm": 4483,
      "amate": 4484,
      "_Calc": 4485,
      "oper": 4486,
      "_hormones": 4487,
      "inoma": 4488,
      "_hypotension": 4489,
      "rolled": 4490,
      "_vasc": 4491,
      "cyc": 4492,
      "axia": 4493,
      "_insuff": 4494,
      "_lat": 4495,
      "_altern": 4496,
      "_analysis": 4497,
      "pre": 4498,
      "_suggestive": 4499,
      "_embolism": 4500,
      "Di": 4501,
      "ras": 4502,
      "_name": 4503,
      "tral": 4504,
      "_affect": 4505,
      "_administered": 4506,
      "acts": 4507,
      "oplastic": 4508,
      "cellular": 4509,
      "_prof": 4510,
      "_pene": 4511,
      "_sequence": 4512,
      "_cond": 4513,
      "ostomy": 4514,
      "ropine": 4515,
      "_iliac": 4516,
      "MS": 4517,
      "ejun": 4518,
      "acent": 4519,
      "_glomerulonephritis": 4520,
      "enoid": 4521,
      "rength": 4522,
      "Oral": 4523,
      "itory": 4524,
      "_withdraw": 4525,
      "_umb": 4526,
      "anarayan": 4527,
      "_prominent": 4528,
      "_murmur": 4529,
      "Class": 4530,
      "_aerial": 4531,
      "**": 4532,
      "aired": 4533,
      "_Posterior": 4534,
      "_foramen": 4535,
      "_pulse": 4536,
      "incter": 4537,
      "_neutroph": 4538,
      "ospor": 4539,
      "_sple": 4540,
      "aments": 4541,
      "odg": 4542,
      "_Ed": 4543,
      "_newborn": 4544,
      "_zone": 4545,
      "_num": 4546,
      "Abd": 4547,
      "Chlor": 4548,
      "_irregular": 4549,
      "cytes": 4550,
      "_experi": 4551,
      "_aoa": 4552,
      "_sut": 4553,
      "ifamp": 4554,
      "_substance": 4555,
      "DA": 4556,
      "Glyc": 4557,
      "Prop": 4558,
      "_Low": 4559,
      "_tumours": 4560,
      "elson": 4561,
      "_benef": 4562,
      "athyroid": 4563,
      "Multiple": 4564,
      "_Therefore": 4565,
      "Lower": 4566,
      "Ox": 4567,
      "_beg": 4568,
      "eps": 4569,
      "agnes": 4570,
      "_gestation": 4571,
      "_girl": 4572,
      "_target": 4573,
      "_anaesthesia": 4574,
      "ylation": 4575,
      "arcoid": 4576,
      "_Anterior": 4577,
      ")-": 4578,
      "_radial": 4579,
      "imer": 4580,
      "_neural": 4581,
      "remia": 4582,
      "_cancers": 4583,
      "OO": 4584,
      "_Ul": 4585,
      "_channels": 4586,
      "_bilirubin": 4587,
      "_resection": 4588,
      "_loop": 4589,
      "orage": 4590,
      "_doc": 4591,
      "atives": 4592,
      "_colitis": 4593,
      "avir": 4594,
      "_pen": 4595,
      "actic": 4596,
      "fication": 4597,
      "_acco": 4598,
      "%.": 4599,
      "omat": 4600,
      "_syph": 4601,
      "_antagonist": 4602,
      "_childhood": 4603,
      "_limited": 4604,
      "rae": 4605,
      "_spleen": 4606,
      "_anesthesia": 4607,
      "_cail": 4608,
      "Central": 4609,
      "erly": 4610,
      "resh": 4611,
      "yton": 4612,
      "_Nerve": 4613,
      "velopment": 4614,
      "_boy": 4615,
      "_duodenum": 4616,
      "erent": 4617,
      "_neuropathy": 4618,
      "_drainage": 4619,
      "rof": 4620,
      "_las": 4621,
      "aed": 4622,
      "_excess": 4623,
      "Increase": 4624,
      "otr": 4625,
      "_cut": 4626,
      "ilical": 4627,
      "ductive": 4628,
      "HA": 4629,
      "ank": 4630,
      "_arises": 4631,
      "_hemolytic": 4632,
      "cm": 4633,
      "aches": 4634,
      "_selective": 4635,
      "_pla": 4636,
      "_correct": 4637,
      "_closure": 4638,
      "_involve": 4639,
      "Fe": 4640,
      "ason": 4641,
      "_embry": 4642,
      "emory": 4643,
      "_follic": 4644,
      "_painful": 4645,
      "idneys": 4646,
      "_arise": 4647,
      "_malaria": 4648,
      "pirin": 4649,
      "rant": 4650,
      "illa": 4651,
      "_provide": 4652,
      "entia": 4653,
      "_enlargement": 4654,
      "apillary": 4655,
      "_approach": 4656,
      "_detection": 4657,
      "_nas": 4658,
      "_score": 4659,
      "_basal": 4660,
      "_Pol": 4661,
      "_Oste": 4662,
      "_bal": 4663,
      "_coli": 4664,
      "_get": 4665,
      "_rub": 4666,
      "upp": 4667,
      "_infectious": 4668,
      "lasma": 4669,
      "agg": 4670,
      "_pericard": 4671,
      "_provides": 4672,
      "MC": 4673,
      "_could": 4674,
      "ompan": 4675,
      "--------": 4676,
      "_agonist": 4677,
      "_dent": 4678,
      "_full": 4679,
      "asic": 4680,
      "_Path": 4681,
      "aginal": 4682,
      "_CoA": 4683,
      "These": 4684,
      "_needed": 4685,
      "vuls": 4686,
      "_cer": 4687,
      "EC": 4688,
      "itic": 4689,
      "_pylor": 4690,
      "_hom": 4691,
      "_hrs": 4692,
      "_retina": 4693,
      "etitive": 4694,
      "_curve": 4695,
      "_division": 4696,
      "_variable": 4697,
      "Haem": 4698,
      "ket": 4699,
      "_turn": 4700,
      "Flu": 4701,
      "rates": 4702,
      "achial": 4703,
      "_event": 4704,
      "OLOGY": 4705,
      "_cirrhosis": 4706,
      "_vir": 4707,
      "_typh": 4708,
      "alp": 4709,
      "actory": 4710,
      "reme": 4711,
      "Acc": 4712,
      "_testing": 4713,
      "ese": 4714,
      "_cartil": 4715,
      "_rig": 4716,
      "oplasma": 4717,
      "_longer": 4718,
      "cription": 4719,
      "ats": 4720,
      "_membranes": 4721,
      "_Also": 4722,
      "hep": 4723,
      "_resemb": 4724,
      "_kg": 4725,
      "_diast": 4726,
      "_vagina": 4727,
      "genic": 4728,
      "tracellular": 4729,
      "otide": 4730,
      "arcoidosis": 4731,
      "_ST": 4732,
      "_Del": 4733,
      "_agar": 4734,
      "onella": 4735,
      "asionally": 4736,
      "_breathing": 4737,
      "cence": 4738,
      "plastic": 4739,
      "ercise": 4740,
      "_repeated": 4741,
      "IA": 4742,
      "_Int": 4743,
      "_potent": 4744,
      "mo": 4745,
      "ott": 4746,
      "_bel": 4747,
      "_slight": 4748,
      "_ec": 4749,
      "_make": 4750,
      "_ade": 4751,
      "soriasis": 4752,
      "EV": 4753,
      "Serum": 4754,
      "quine": 4755,
      "_palm": 4756,
      "lox": 4757,
      "ional": 4758,
      "ductor": 4759,
      "_His": 4760,
      "_immediately": 4761,
      "_respond": 4762,
      "_amyloid": 4763,
      "_excision": 4764,
      "_quad": 4765,
      "_ovary": 4766,
      "_current": 4767,
      "rinary": 4768,
      "_esophageal": 4769,
      "_grad": 4770,
      "_Cell": 4771,
      "igm": 4772,
      "_Will": 4773,
      "resia": 4774,
      "_round": 4775,
      "ou": 4776,
      "ondyl": 4777,
      "ript": 4778,
      "apular": 4779,
      "inol": 4780,
      "_graft": 4781,
      "_begins": 4782,
      "MG": 4783,
      "side": 4784,
      "teryg": 4785,
      "_stop": 4786,
      "_program": 4787,
      ".)": 4788,
      "_moality": 4789,
      "_absorbed": 4790,
      "ocons": 4791,
      "bout": 4792,
      "Refer": 4793,
      "_lymphatic": 4794,
      "_âĢ": 4795,
      "veitis": 4796,
      "aternal": 4797,
      "_Drugs": 4798,
      "_hour": 4799,
      "_distress": 4800,
      "otes": 4801,
      "_ability": 4802,
      "_effusion": 4803,
      "_exposed": 4804,
      "stant": 4805,
      "_constit": 4806,
      "Causes": 4807,
      "Syst": 4808,
      "_biliary": 4809,
      "kalemia": 4810,
      "_depends": 4811,
      "Bronch": 4812,
      "adiation": 4813,
      "Int": 4814,
      "_tubular": 4815,
      "_ulnar": 4816,
      "anning": 4817,
      "ighest": 4818,
      "_Rep": 4819,
      "_although": 4820,
      "_coex": 4821,
      "lammatory": 4822,
      "_adverse": 4823,
      "oan": 4824,
      "okinase": 4825,
      "_just": 4826,
      "_Ext": 4827,
      "_complain": 4828,
      "Pneum": 4829,
      "atid": 4830,
      "_waves": 4831,
      "_antigens": 4832,
      "_tons": 4833,
      "_power": 4834,
      "ipital": 4835,
      "_attached": 4836,
      "Kidney": 4837,
      "First": 4838,
      "Te": 4839,
      "_preval": 4840,
      "_append": 4841,
      "_functional": 4842,
      "edian": 4843,
      "Cyt": 4844,
      "atum": 4845,
      "_burn": 4846,
      "traction": 4847,
      "olerance": 4848,
      "_paicularly": 4849,
      "_suscep": 4850,
      "_particular": 4851,
      "_oxide": 4852,
      "_episodes": 4853,
      "_methods": 4854,
      "_axis": 4855,
      "_gm": 4856,
      "utis": 4857,
      "atural": 4858,
      "PS": 4859,
      "eminal": 4860,
      "_More": 4861,
      "_subm": 4862,
      "_humerus": 4863,
      "_rectus": 4864,
      "_don": 4865,
      "_streptococc": 4866,
      "_accompan": 4867,
      "Des": 4868,
      "We": 4869,
      "ioid": 4870,
      "urium": 4871,
      "_lum": 4872,
      "_Lab": 4873,
      "_dermatitis": 4874,
      "_transfusion": 4875,
      "_components": 4876,
      "arct": 4877,
      "tex": 4878,
      "_fluor": 4879,
      "_achie": 4880,
      "_IL": 4881,
      "_height": 4882,
      "_Gu": 4883,
      "ocular": 4884,
      "_incis": 4885,
      "ices": 4886,
      "itreous": 4887,
      "inity": 4888,
      "_nail": 4889,
      "_persons": 4890,
      "erated": 4891,
      "isation": 4892,
      "ush": 4893,
      "tegr": 4894,
      "_imaging": 4895,
      "vestig": 4896,
      "ched": 4897,
      "ycline": 4898,
      "_syphilis": 4899,
      "_thought": 4900,
      "_September": 4901,
      "amma": 4902,
      "tigm": 4903,
      "_towards": 4904,
      "bohydrate": 4905,
      "Min": 4906,
      "_pun": 4907,
      "_morph": 4908,
      "yrosine": 4909,
      "esity": 4910,
      "_flexion": 4911,
      "ses": 4912,
      "istics": 4913,
      "umatic": 4914,
      "CR": 4915,
      "_access": 4916,
      "oporosis": 4917,
      "_cyan": 4918,
      "_upon": 4919,
      "_recur": 4920,
      "_deposits": 4921,
      "rhy": 4922,
      "_adjacent": 4923,
      "_composed": 4924,
      "_commonest": 4925,
      "_yellow": 4926,
      "Cons": 4927,
      "More": 4928,
      "_Pseud": 4929,
      "odon": 4930,
      "_follows": 4931,
      "_Physiology": 4932,
      "alass": 4933,
      "ortal": 4934,
      "_hard": 4935,
      "_dilated": 4936,
      "_identified": 4937,
      "EM": 4938,
      "hoea": 4939,
      "def": 4940,
      "jury": 4941,
      "ologically": 4942,
      "_triad": 4943,
      "_median": 4944,
      "_oxidase": 4945,
      "plen": 4946,
      "_serious": 4947,
      "lostr": 4948,
      "_gastrointestinal": 4949,
      "_menstr": 4950,
      "_products": 4951,
      "_diure": 4952,
      "_binds": 4953,
      "emoral": 4954,
      "_classified": 4955,
      "_variety": 4956,
      "_Ox": 4957,
      "_conve": 4958,
      "_strand": 4959,
      "_phosphatase": 4960,
      "_nausea": 4961,
      "Ob": 4962,
      "itrate": 4963,
      "_Test": 4964,
      "_glycogen": 4965,
      "_double": 4966,
      "_break": 4967,
      "_cathe": 4968,
      "_community": 4969,
      "_Min": 4970,
      "_conduction": 4971,
      "gether": 4972,
      "_unit": 4973,
      "lamyd": 4974,
      "esophageal": 4975,
      "_retic": 4976,
      "_elevation": 4977,
      "rexate": 4978,
      "_prac": 4979,
      "_Because": 4980,
      "_arteries": 4981,
      "_antibiotic": 4982,
      "MV": 4983,
      "_helps": 4984,
      "_accumulation": 4985,
      "ycobacter": 4986,
      "_born": 4987,
      "izes": 4988,
      "_radical": 4989,
      "_occurring": 4990,
      "Diagnosis": 4991,
      "hythm": 4992,
      "_myeloma": 4993,
      "_aspiration": 4994,
      "_Bacter": 4995,
      "_Cont": 4996,
      "ndrom": 4997,
      "ender": 4998,
      "_fu": 4999,
      "_alone": 5000,
      "Hepatitis": 5001,
      "_germ": 5002,
      "_yrs": 5003,
      "ytoin": 5004,
      "_obtained": 5005,
      "_elbow": 5006,
      "_intracranial": 5007,
      "WER": 5008,
      "_inner": 5009,
      "_phosphory": 5010,
      "Pain": 5011,
      "_And": 5012,
      "_run": 5013,
      "arrier": 5014,
      "_represent": 5015,
      "_vit": 5016,
      "romuscular": 5017,
      "_strength": 5018,
      "avy": 5019,
      "_uncom": 5020,
      "_infiltr": 5021,
      "irection": 5022,
      "_pleural": 5023,
      "_destruction": 5024,
      "_serv": 5025,
      "_Vas": 5026,
      "_values": 5027,
      "ADH": 5028,
      "Ass": 5029,
      "_den": 5030,
      "_resol": 5031,
      "_sample": 5032,
      "_enlarged": 5033,
      "otrexate": 5034,
      "_Biochemistry": 5035,
      "_Child": 5036,
      "_placed": 5037,
      "_continuous": 5038,
      "_proliferation": 5039,
      "MR": 5040,
      "_occlusion": 5041,
      "iour": 5042,
      "itting": 5043,
      "_chemical": 5044,
      "_problems": 5045,
      "hn": 5046,
      "page": 5047,
      "ror": 5048,
      "cyst": 5049,
      "_still": 5050,
      "Hg": 5051,
      "_IgA": 5052,
      "_verteb": 5053,
      "_take": 5054,
      "azep": 5055,
      "_mediast": 5056,
      "Infection": 5057,
      "_prophylaxis": 5058,
      "_fibr": 5059,
      "ert": 5060,
      "_dilatation": 5061,
      "Dep": 5062,
      "_takes": 5063,
      "_ank": 5064,
      "_staining": 5065,
      "_Vol": 5066,
      "_rather": 5067,
      "_predic": 5068,
      "_outer": 5069,
      "_ECG": 5070,
      "_atresia": 5071,
      "_immunity": 5072,
      "Bl": 5073,
      "usions": 5074,
      "_Pneum": 5075,
      "eptide": 5076,
      "orta": 5077,
      "urgitation": 5078,
      "_tuberc": 5079,
      "degC": 5080,
      "HB": 5081,
      "ait": 5082,
      "_Severe": 5083,
      "INE": 5084,
      "_labour": 5085,
      "_basis": 5086,
      "_behind": 5087,
      "abil": 5088,
      "oplasia": 5089,
      "appear": 5090,
      "ochromocyt": 5091,
      "OOK": 5092,
      "NO": 5093,
      "_inhibiting": 5094,
      "_clot": 5095,
      "Breast": 5096,
      "SV": 5097,
      "_CA": 5098,
      "_NOT": 5099,
      "_Its": 5100,
      "_unilateral": 5101,
      "_AND": 5102,
      "UT": 5103,
      "_IPC": 5104,
      "genesis": 5105,
      "_information": 5106,
      "oglyc": 5107,
      "_evaluation": 5108,
      "_across": 5109,
      "ancies": 5110,
      "_begin": 5111,
      "_route": 5112,
      "oal": 5113,
      "_lines": 5114,
      "_Nelson": 5115,
      "_prepar": 5116,
      "entials": 5117,
      "rep": 5118,
      "_conversion": 5119,
      "_epig": 5120,
      "EDIC": 5121,
      "_completely": 5122,
      "_atrium": 5123,
      "adenopathy": 5124,
      "_generation": 5125,
      "_steroids": 5126,
      "_Obs": 5127,
      "_endocarditis": 5128,
      "_interstitial": 5129,
      "_Dif": 5130,
      "_ducts": 5131,
      "_opposite": 5132,
      "_colour": 5133,
      "berg": 5134,
      "uspid": 5135,
      "After": 5136,
      "Beta": 5137,
      "Prol": 5138,
      "_tension": 5139,
      "_parotid": 5140,
      "okalemia": 5141,
      "ANSWER": 5142,
      "_supplies": 5143,
      "_alkalosis": 5144,
      "roid": 5145,
      "_combined": 5146,
      "Total": 5147,
      "pling": 5148,
      "self": 5149,
      "_hands": 5150,
      "_little": 5151,
      "oot": 5152,
      "_trem": 5153,
      "_displac": 5154,
      "_concentr": 5155,
      "_chloride": 5156,
      "oglobulin": 5157,
      "perg": 5158,
      "_aeri": 5159,
      "_prostate": 5160,
      "_mostly": 5161,
      "_septum": 5162,
      "acd": 5163,
      "_gonad": 5164,
      "_Fib": 5165,
      "_activated": 5166,
      "_expression": 5167,
      "Carcinoma": 5168,
      "Secondary": 5169,
      "_Sab": 5170,
      "quit": 5171,
      "_consum": 5172,
      "rix": 5173,
      "unn": 5174,
      "ancreatic": 5175,
      "_ions": 5176,
      "lderly": 5177,
      "_testis": 5178,
      "_eosinophil": 5179,
      "otonin": 5180,
      "_Liver": 5181,
      "cytic": 5182,
      "_insufficiency": 5183,
      "_IgM": 5184,
      "_thyro": 5185,
      "_Although": 5186,
      "_clinically": 5187,
      "Muc": 5188,
      "Reg": 5189,
      "_live": 5190,
      "Phosph": 5191,
      "_subj": 5192,
      "_visc": 5193,
      "_delayed": 5194,
      "_During": 5195,
      "OM": 5196,
      "_Phen": 5197,
      "_perforation": 5198,
      "_entire": 5199,
      "Brain": 5200,
      "hur": 5201,
      "throp": 5202,
      "iae": 5203,
      "apine": 5204,
      "_perme": 5205,
      "othorax": 5206,
      "wing": 5207,
      "_conver": 5208,
      "rauma": 5209,
      "_sphincter": 5210,
      "_Syn": 5211,
      "_MEDIC": 5212,
      "_mitral": 5213,
      "HT": 5214,
      "_amn": 5215,
      "enorrhea": 5216,
      "_together": 5217,
      "_USG": 5218,
      "_poion": 5219,
      "hyde": 5220,
      "_neonatal": 5221,
      "_viruses": 5222,
      "_grade": 5223,
      "_stone": 5224,
      "ococcal": 5225,
      "||": 5226,
      "lycop": 5227,
      "uccin": 5228,
      "_safe": 5229,
      "_mucosal": 5230,
      "optosis": 5231,
      "inate": 5232,
      "_environment": 5233,
      "ophosph": 5234,
      "parathyroidism": 5235,
      "odgkin": 5236,
      "izontal": 5237,
      "ipp": 5238,
      "ident": 5239,
      "_egg": 5240,
      "_predis": 5241,
      "PE": 5242,
      "planation": 5243,
      "_erythro": 5244,
      "_suffering": 5245,
      "_bacilli": 5246,
      "_sinuses": 5247,
      "_AIDS": 5248,
      "_spe": 5249,
      "_special": 5250,
      "_measures": 5251,
      "_fingers": 5252,
      "_eti": 5253,
      "_impaired": 5254,
      "_grav": 5255,
      "Mit": 5256,
      "_data": 5257,
      "_Causes": 5258,
      "_rates": 5259,
      "_relations": 5260,
      "ameth": 5261,
      "_reduces": 5262,
      "Mon": 5263,
      "_color": 5264,
      "alassemia": 5265,
      "_ectopic": 5266,
      "_mandible": 5267,
      "trial": 5268,
      "_Serum": 5269,
      "iston": 5270,
      "anging": 5271,
      "_TH": 5272,
      "Mac": 5273,
      "anol": 5274,
      "_see": 5275,
      "hingra": 5276,
      "_dystrophy": 5277,
      "_way": 5278,
      "_carbon": 5279,
      "ada": 5280,
      "_Sin": 5281,
      "_stroke": 5282,
      "_dysplasia": 5283,
      "_synthesized": 5284,
      "_blindness": 5285,
      "DP": 5286,
      "_Human": 5287,
      "_adhes": 5288,
      "iomyopathy": 5289,
      "vious": 5290,
      "_reach": 5291,
      "_Mo": 5292,
      "_Br": 5293,
      "dehyde": 5294,
      "rought": 5295,
      "atremia": 5296,
      "_kidneys": 5297,
      "steine": 5298,
      "_Ananth": 5299,
      "_remain": 5300,
      "_persistent": 5301,
      "orrhoea": 5302,
      "_measured": 5303,
      "_schizophrenia": 5304,
      "_released": 5305,
      "nutrition": 5306,
      "_pet": 5307,
      "_Left": 5308,
      "ipar": 5309,
      "achn": 5310,
      "rimal": 5311,
      "_irr": 5312,
      "_field": 5313,
      "_vocal": 5314,
      "_Congenital": 5315,
      "_aspect": 5316,
      "DS": 5317,
      "phen": 5318,
      "actin": 5319,
      "_nuclear": 5320,
      "cutaneous": 5321,
      "_layers": 5322,
      "erebral": 5323,
      "orphic": 5324,
      "_easily": 5325,
      "lostridium": 5326,
      "_Pain": 5327,
      "_Reg": 5328,
      "andom": 5329,
      "_cailage": 5330,
      "tent": 5331,
      "plications": 5332,
      "type": 5333,
      "teric": 5334,
      "_once": 5335,
      "echanical": 5336,
      "_feeding": 5337,
      "_retro": 5338,
      "_location": 5339,
      "_thickness": 5340,
      "_Right": 5341,
      "_perman": 5342,
      "omyelitis": 5343,
      "_functions": 5344,
      "_healthy": 5345,
      "atine": 5346,
      "_TEX": 5347,
      "_monitoring": 5348,
      "ifampicin": 5349,
      "_induc": 5350,
      "_memory": 5351,
      "eh": 5352,
      "ensin": 5353,
      "_passes": 5354,
      "_anxiety": 5355,
      "_rout": 5356,
      "_fibrous": 5357,
      "arbonate": 5358,
      "_precipit": 5359,
      "_impairment": 5360,
      "_fix": 5361,
      "rang": 5362,
      "_pulp": 5363,
      "_points": 5364,
      "_Toxic": 5365,
      "_incision": 5366,
      "entially": 5367,
      "_Features": 5368,
      "Bone": 5369,
      "_CH": 5370,
      "_Lateral": 5371,
      "abc": 5372,
      "_stem": 5373,
      "_microscopy": 5374,
      ")#": 5375,
      "_table": 5376,
      "heochromocyt": 5377,
      "_humans": 5378,
      "_equal": 5379,
      "_PAGE": 5380,
      "dep": 5381,
      "_conscious": 5382,
      "idge": 5383,
      "_subsequ": 5384,
      "_retention": 5385,
      "_Pathology": 5386,
      "_Gr": 5387,
      "ref": 5388,
      "_dead": 5389,
      "_Phys": 5390,
      "_cytoplasm": 5391,
      "hurana": 5392,
      "_conjug": 5393,
      "_brought": 5394,
      "ogene": 5395,
      "_trial": 5396,
      "_Pregnancy": 5397,
      "Micro": 5398,
      "lim": 5399,
      "isol": 5400,
      "ady": 5401,
      "hai": 5402,
      "onucle": 5403,
      "_ide": 5404,
      "olute": 5405,
      "_capillary": 5406,
      "Medial": 5407,
      "_Har": 5408,
      "_imm": 5409,
      "_ultrasound": 5410,
      "DR": 5411,
      "flurane": 5412,
      "asles": 5413,
      "_star": 5414,
      "_coagulation": 5415,
      "lected": 5416,
      "uodenal": 5417,
      "Fracture": 5418,
      "_exercise": 5419,
      "coholic": 5420,
      ".(": 5421,
      "_play": 5422,
      "_purpura": 5423,
      "_routine": 5424,
      "itance": 5425,
      "_floor": 5426,
      "Long": 5427,
      "ithium": 5428,
      "munic": 5429,
      "_moderate": 5430,
      "ocyst": 5431,
      "Internal": 5432,
      "obia": 5433,
      "_granules": 5434,
      "_problem": 5435,
      "_endothelial": 5436,
      "apt": 5437,
      "_pupil": 5438,
      "_leprosy": 5439,
      "omer": 5440,
      "_spots": 5441,
      "Br": 5442,
      "Lip": 5443,
      "leeding": 5444,
      "ionic": 5445,
      "psy": 5446,
      "_applied": 5447,
      "_invasion": 5448,
      "uctose": 5449,
      "CS": 5450,
      "Qu": 5451,
      "_phot": 5452,
      "iamine": 5453,
      "Cont": 5454,
      "_cas": 5455,
      "ysacchar": 5456,
      "_cold": 5457,
      "Cardiac": 5458,
      "_cartilage": 5459,
      "_six": 5460,
      "ichen": 5461,
      "_prevents": 5462,
      "mphys": 5463,
      "_adequate": 5464,
      "roch": 5465,
      "ilit": 5466,
      "atig": 5467,
      "_Cons": 5468,
      "_heter": 5469,
      "_KDT": 5470,
      "Lung": 5471,
      "_Small": 5472,
      "eling": 5473,
      "ensory": 5474,
      "_degrad": 5475,
      "_complains": 5476,
      "au": 5477,
      "_noted": 5478,
      "VE": 5479,
      "lase": 5480,
      "ocele": 5481,
      "_repo": 5482,
      "OL": 5483,
      "ding": 5484,
      "idation": 5485,
      "_Love": 5486,
      "_Gene": 5487,
      "FP": 5488,
      "_Dhingra": 5489,
      "_analog": 5490,
      "_pi": 5491,
      "_larynx": 5492,
      "_perine": 5493,
      "afness": 5494,
      "_WHO": 5495,
      "_acquired": 5496,
      "_shape": 5497,
      "azol": 5498,
      "achnoid": 5499,
      "ndromes": 5500,
      "FR": 5501,
      "Ure": 5502,
      "_Acc": 5503,
      "_examin": 5504,
      "ithelial": 5505,
      "rey": 5506,
      "olip": 5507,
      "_alkaline": 5508,
      "Es": 5509,
      "_copper": 5510,
      "_glob": 5511,
      "_asc": 5512,
      "_Stage": 5513,
      "_salivary": 5514,
      ":*": 5515,
      "ANA": 5516,
      "_Skin": 5517,
      "_LDL": 5518,
      "_nephropathy": 5519,
      "_broad": 5520,
      "roat": 5521,
      "igmoid": 5522,
      "_Sign": 5523,
      "_SLE": 5524,
      "_pharyngeal": 5525,
      "_fur": 5526,
      "_kill": 5527,
      "_maintain": 5528,
      "Gl": 5529,
      "ril": 5530,
      "_AV": 5531,
      "_Des": 5532,
      "_Long": 5533,
      "_preventive": 5534,
      "_image": 5535,
      "emphigus": 5536,
      "_penicillin": 5537,
      "otensin": 5538,
      "_induction": 5539,
      "ulates": 5540,
      "acid": 5541,
      "astom": 5542,
      "_Patient": 5543,
      "_forearm": 5544,
      "_frontal": 5545,
      "_survival": 5546,
      "_PT": 5547,
      "_Gram": 5548,
      "_larger": 5549,
      "PP": 5550,
      "cont": 5551,
      "_Hence": 5552,
      "_represents": 5553,
      "icron": 5554,
      "ading": 5555,
      "_Bone": 5556,
      "positive": 5557,
      "_center": 5558,
      "Nit": 5559,
      "_rule": 5560,
      "uate": 5561,
      "Ser": 5562,
      "hip": 5563,
      "_lost": 5564,
      "_severity": 5565,
      "virus": 5566,
      "_acet": 5567,
      "_Bi": 5568,
      "_Intr": 5569,
      "_taking": 5570,
      "Hal": 5571,
      "_mill": 5572,
      "unting": 5573,
      "linked": 5574,
      "ah": 5575,
      "istant": 5576,
      "ported": 5577,
      "_lesser": 5578,
      "AC": 5579,
      "During": 5580,
      "Rem": 5581,
      "_aortic": 5582,
      "_GI": 5583,
      "_defic": 5584,
      "loxacin": 5585,
      "_brown": 5586,
      "_throm": 5587,
      "Gluc": 5588,
      "edb": 5589,
      "_dental": 5590,
      "ypeension": 5591,
      "_characterised": 5592,
      "_axillary": 5593,
      "oderma": 5594,
      "imus": 5595,
      "_rhin": 5596,
      "_Mon": 5597,
      "_Dys": 5598,
      "egative": 5599,
      "_Hepatitis": 5600,
      "bac": 5601,
      "tible": 5602,
      "_lupus": 5603,
      "_difficulty": 5604,
      "TBOOK": 5605,
      "Systemic": 5606,
      "Car": 5607,
      "NE": 5608,
      "SI": 5609,
      "vant": 5610,
      "_vasculitis": 5611,
      "Ket": 5612,
      "LDL": 5613,
      "mal": 5614,
      "agland": 5615,
      "_ovulation": 5616,
      "_ceain": 5617,
      "_units": 5618,
      "_vasodil": 5619,
      "acute": 5620,
      "_analges": 5621,
      "Cyc": 5622,
      "Glucose": 5623,
      "_lin": 5624,
      "abb": 5625,
      "ibility": 5626,
      "acted": 5627,
      "_others": 5628,
      "uli": 5629,
      "_propo": 5630,
      "_affinity": 5631,
      "licis": 5632,
      "iness": 5633,
      "ocoic": 5634,
      "amel": 5635,
      "imple": 5636,
      "hydration": 5637,
      "*.": 5638,
      "_thigh": 5639,
      "_Mac": 5640,
      "OH": 5641,
      "anger": 5642,
      "Cell": 5643,
      "with": 5644,
      "_fiss": 5645,
      "_Rev": 5646,
      "eliac": 5647,
      "_invasive": 5648,
      "_systolic": 5649,
      "_concer": 5650,
      "_older": 5651,
      "lecting": 5652,
      "hepatic": 5653,
      "_phag": 5654,
      "_extreme": 5655,
      "_ter": 5656,
      "resses": 5657,
      "eba": 5658,
      "Severe": 5659,
      "ulop": 5660,
      "opath": 5661,
      "_Flu": 5662,
      "_sugar": 5663,
      "_Aden": 5664,
      "_via": 5665,
      "_radiograph": 5666,
      "_polymerase": 5667,
      "Sal": 5668,
      "no": 5669,
      "rod": 5670,
      "rog": 5671,
      "_procedures": 5672,
      "_urethra": 5673,
      "NF": 5674,
      "Antib": 5675,
      "_reducing": 5676,
      "Eq": 5677,
      "_nutrition": 5678,
      "_highest": 5679,
      "_constant": 5680,
      "_subcutaneous": 5681,
      "_neurological": 5682,
      "_triangle": 5683,
      "atch": 5684,
      "ingual": 5685,
      "_anat": 5686,
      "loy": 5687,
      "_Str": 5688,
      "_storage": 5689,
      "_immediate": 5690,
      "_blocker": 5691,
      "Do": 5692,
      "_dry": 5693,
      "_affecting": 5694,
      "_Schw": 5695,
      "Mes": 5696,
      "_substr": 5697,
      "_accur": 5698,
      "_probably": 5699,
      "_catheter": 5700,
      "Tum": 5701,
      "tip": 5702,
      "tional": 5703,
      "_intact": 5704,
      "flow": 5705,
      "ork": 5706,
      "_visible": 5707,
      "_autoimmune": 5708,
      "_penetr": 5709,
      "_fuher": 5710,
      "zed": 5711,
      "undus": 5712,
      "_otitis": 5713,
      "Stage": 5714,
      "_difference": 5715,
      "_salt": 5716,
      "ometry": 5717,
      "which": 5718,
      "_peptide": 5719,
      "oagul": 5720,
      "andida": 5721,
      "_transport": 5722,
      "Protein": 5723,
      "_Decreased": 5724,
      "_permanent": 5725,
      "inations": 5726,
      "ervative": 5727,
      "ritic": 5728,
      "RH": 5729,
      "heal": 5730,
      "_Multiple": 5731,
      "_Metabol": 5732,
      "Less": 5733,
      "_mandibular": 5734,
      "CoA": 5735,
      "_retinopathy": 5736,
      "ky": 5737,
      "_states": 5738,
      "_First": 5739,
      "_super": 5740,
      "trin": 5741,
      "_suppo": 5742,
      "_smoking": 5743,
      "mittent": 5744,
      "_thickening": 5745,
      "_orbital": 5746,
      "_transplantation": 5747,
      "_dip": 5748,
      "utta": 5749,
      "_feet": 5750,
      "_extensive": 5751,
      "Sec": 5752,
      "ned": 5753,
      "_inse": 5754,
      "stem": 5755,
      "_upto": 5756,
      "_Phosph": 5757,
      "_prevalence": 5758,
      "plicated": 5759,
      "di": 5760,
      "ication": 5761,
      "Insulin": 5762,
      "ynec": 5763,
      "_corp": 5764,
      "_molecular": 5765,
      "_General": 5766,
      "illaries": 5767,
      "_gain": 5768,
      "_Symptoms": 5769,
      "_Rel": 5770,
      "_progesterone": 5771,
      "Pa": 5772,
      "_bed": 5773,
      "_mL": 5774,
      "_regurgitation": 5775,
      "umm": 5776,
      "alamic": 5777,
      "omatous": 5778,
      "ugular": 5779,
      "_uptake": 5780,
      "_processes": 5781,
      "_burns": 5782,
      "mann": 5783,
      "_Option": 5784,
      "uterine": 5785,
      "Bi": 5786,
      "onitis": 5787,
      "_surve": 5788,
      "_black": 5789,
      "_conjunctivitis": 5790,
      "_focal": 5791,
      "_hypoxia": 5792,
      "tingu": 5793,
      "_Qu": 5794,
      "lycopro": 5795,
      "_chains": 5796,
      "_mesenteric": 5797,
      "allow": 5798,
      "_varic": 5799,
      "_epiderm": 5800,
      "atigue": 5801,
      "ME": 5802,
      "xy": 5803,
      "_liqu": 5804,
      "_longus": 5805,
      "lusive": 5806,
      "Best": 5807,
      "_Carb": 5808,
      "_TEXTBOOK": 5809,
      "_dark": 5810,
      "_pall": 5811,
      "_mamm": 5812,
      "itol": 5813,
      "ausal": 5814,
      "_stimulus": 5815,
      "_Sabiston": 5816,
      "Calcium": 5817,
      "uced": 5818,
      "_Dep": 5819,
      "Inhibit": 5820,
      "_therapeutic": 5821,
      "_emp": 5822,
      "era": 5823,
      "_lys": 5824,
      "_methyl": 5825,
      "junctiv": 5826,
      "_mixed": 5827,
      "uronium": 5828,
      "_AR": 5829,
      "_PO": 5830,
      "_pollicis": 5831,
      "Explanation": 5832,
      "_Acid": 5833,
      "_ful": 5834,
      "yrid": 5835,
      "_platelets": 5836,
      "_carrier": 5837,
      "vernous": 5838,
      "met": 5839,
      "_ocular": 5840,
      "ulse": 5841,
      "negative": 5842,
      "_setting": 5843,
      "respond": 5844,
      "inct": 5845,
      "ocol": 5846,
      "otin": 5847,
      "_linked": 5848,
      "icidal": 5849,
      "osity": 5850,
      "_trac": 5851,
      "_intercostal": 5852,
      "_tet": 5853,
      "aturation": 5854,
      "_fixed": 5855,
      "_Er": 5856,
      "olecyst": 5857,
      "ties": 5858,
      "duct": 5859,
      "_dissection": 5860,
      "mphysema": 5861,
      "_medulla": 5862,
      "_injured": 5863,
      "_replacement": 5864,
      "_extremities": 5865,
      "_Social": 5866,
      "_distingu": 5867,
      "_Anatomy": 5868,
      "Thyroid": 5869,
      "_Harper": 5870,
      "_thumb": 5871,
      "_walls": 5872,
      "aster": 5873,
      "_Lung": 5874,
      "ortality": 5875,
      "NT": 5876,
      "garis": 5877,
      "bcd": 5878,
      "_flat": 5879,
      "Middle": 5880,
      "_direction": 5881,
      "_Two": 5882,
      "opsis": 5883,
      "Ext": 5884,
      "_uveitis": 5885,
      "_elderly": 5886,
      "_sep": 5887,
      "oconstriction": 5888,
      "bacter": 5889,
      "iatric": 5890,
      "_shunt": 5891,
      "thromycin": 5892,
      "arfarin": 5893,
      "dec": 5894,
      "get": 5895,
      "_forming": 5896,
      "_product": 5897,
      "_Op": 5898,
      "_mis": 5899,
      "idazole": 5900,
      "inea": 5901,
      "_apex": 5902,
      "_characteristics": 5903,
      "riasis": 5904,
      "ressing": 5905,
      "_healing": 5906,
      "_FSH": 5907,
      "avascular": 5908,
      "Gene": 5909,
      "_minimal": 5910,
      "hyoid": 5911,
      "_rectal": 5912,
      "_isolated": 5913,
      "_word": 5914,
      "_nature": 5915,
      "_One": 5916,
      "osteroids": 5917,
      "_haemorrhage": 5918,
      "come": 5919,
      "opl": 5920,
      "aceous": 5921,
      "_bronchi": 5922,
      "RU": 5923,
      "TA": 5924,
      "_extent": 5925,
      "_pteryg": 5926,
      "_showed": 5927,
      "_saline": 5928,
      "heimer": 5929,
      "_Dav": 5930,
      "_events": 5931,
      "MRI": 5932,
      "_reason": 5933,
      "_intrinsic": 5934,
      "thrombin": 5935,
      "ze": 5936,
      "_able": 5937,
      "Cardiovascular": 5938,
      "_dors": 5939,
      "_cortex": 5940,
      "_tubule": 5941,
      "termine": 5942,
      "_aorta": 5943,
      "_rev": 5944,
      "_withdrawal": 5945,
      "agnesium": 5946,
      "?]": 5947,
      "[?]": 5948,
      "erb": 5949,
      "_enters": 5950,
      "anglia": 5951,
      "_erup": 5952,
      "_tympanic": 5953,
      "wise": 5954,
      "_peak": 5955,
      "_BD": 5956,
      "shaped": 5957,
      "_squ": 5958,
      "_stable": 5959,
      "orecept": 5960,
      "_Antib": 5961,
      "_basic": 5962,
      "retin": 5963,
      "Metabolism": 5964,
      "cks": 5965,
      "load": 5966,
      "ectoral": 5967,
      "_encephalopathy": 5968,
      "CL": 5969,
      "oplast": 5970,
      "_chapter": 5971,
      "_gap": 5972,
      "_LH": 5973,
      "_lymphadenopathy": 5974,
      "_showing": 5975,
      "_connective": 5976,
      "Sodium": 5977,
      "rist": 5978,
      "_mucus": 5979,
      "_endometrial": 5980,
      "_hypoglycemia": 5981,
      "Dise": 5982,
      "_mastoid": 5983,
      "phag": 5984,
      "_May": 5985,
      "_surrounding": 5986,
      "Nerve": 5987,
      "_categ": 5988,
      "_fine": 5989,
      "ythem": 5990,
      "allop": 5991,
      "leb": 5992,
      "irium": 5993,
      "_termed": 5994,
      "itoneum": 5995,
      "ollicular": 5996,
      "Cat": 5997,
      "Ery": 5998,
      "stein": 5999,
      "tidine": 6000,
      "Prost": 6001,
      "_inherited": 6002,
      "Rep": 6003,
      "_(>": 6004,
      "_alter": 6005,
      "_poal": 6006,
      "_Ananthanarayan": 6007,
      "_ethm": 6008,
      "_according": 6009,
      "_measles": 6010,
      "_assessment": 6011,
      "_uncommon": 6012,
      "toxic": 6013,
      "_indication": 6014,
      "_closed": 6015,
      "_glomerular": 6016,
      "nder": 6017,
      "icrobial": 6018,
      "Loss": 6019,
      "bility": 6020,
      "_substances": 6021,
      "_Management": 6022,
      "_anomalies": 6023,
      "ailure": 6024,
      "_ends": 6025,
      "Rel": 6026,
      "eart": 6027,
      "_implant": 6028,
      "_Head": 6029,
      "_rectum": 6030,
      "opress": 6031,
      "_success": 6032,
      "_earliest": 6033,
      "abe": 6034,
      "_subun": 6035,
      "_tubules": 6036,
      "_refr": 6037,
      "_mechanisms": 6038,
      "_laboratory": 6039,
      "_widely": 6040,
      "_oss": 6041,
      "_lamin": 6042,
      "tries": 6043,
      "_Pan": 6044,
      "_deriv": 6045,
      "_wrist": 6046,
      "Ir": 6047,
      "Obs": 6048,
      "tage": 6049,
      "_Good": 6050,
      "Herpes": 6051,
      "Can": 6052,
      "_inst": 6053,
      "_trache": 6054,
      "ger": 6055,
      "_gang": 6056,
      "_MR": 6057,
      "_tric": 6058,
      "rohn": 6059,
      "ivac": 6060,
      "othane": 6061,
      "levated": 6062,
      "_neutrophils": 6063,
      ":#": 6064,
      "_density": 6065,
      "_five": 6066,
      "_Bar": 6067,
      "_return": 6068,
      "_secret": 6069,
      "Na": 6070,
      "thase": 6071,
      "_front": 6072,
      "iers": 6073,
      "utum": 6074,
      "illation": 6075,
      "rontal": 6076,
      "hesis": 6077,
      "Muscle": 6078,
      "Also": 6079,
      "lieved": 6080,
      "_fast": 6081,
      "_cephal": 6082,
      "Following": 6083,
      "fied": 6084,
      "_ii": 6085,
      "_provided": 6086,
      "_`": 6087,
      "_extracellular": 6088,
      "_controlled": 6089,
      "ociation": 6090,
      "_interaction": 6091,
      "_diarrhoea": 6092,
      "add": 6093,
      "_carbohydrate": 6094,
      "Er": 6095,
      "_androgen": 6096,
      "ystitis": 6097,
      "sa": 6098,
      "umps": 6099,
      "_Prol": 6100,
      "Alpha": 6101,
      "_encephalitis": 6102,
      "bed": 6103,
      "emale": 6104,
      "_inside": 6105,
      "_tibia": 6106,
      "Ster": 6107,
      "_ataxia": 6108,
      "_centre": 6109,
      "Mod": 6110,
      "_your": 6111,
      "uven": 6112,
      "iding": 6113,
      "_gestational": 6114,
      "One": 6115,
      "_tip": 6116,
      "esophagus": 6117,
      "atz": 6118,
      "_auditory": 6119,
      "lit": 6120,
      "onates": 6121,
      "_oil": 6122,
      "_anaesthetic": 6123,
      "enzyme": 6124,
      "asth": 6125,
      "Diabetes": 6126,
      "_foreign": 6127,
      "_portion": 6128,
      "Early": 6129,
      "oratory": 6130,
      "_pneumoniae": 6131,
      "_penis": 6132,
      "_Total": 6133,
      "opausal": 6134,
      "tracycline": 6135,
      "_bony": 6136,
      "_uni": 6137,
      "Dys": 6138,
      "ued": 6139,
      "_Usually": 6140,
      "_sheath": 6141,
      "vent": 6142,
      "_regions": 6143,
      "_orbit": 6144,
      "Derm": 6145,
      "False": 6146,
      "SR": 6147,
      "_sulph": 6148,
      "lous": 6149,
      "_here": 6150,
      "ellum": 6151,
      "_Ghai": 6152,
      "Park": 6153,
      "inum": 6154,
      "amines": 6155,
      "face": 6156,
      "_spasm": 6157,
      "renergic": 6158,
      "_mention": 6159,
      "mark": 6160,
      "_pump": 6161,
      "_innerv": 6162,
      "_Review": 6163,
      "omplete": 6164,
      "_accept": 6165,
      "_neg": 6166,
      "_occasionally": 6167,
      "Facial": 6168,
      "Poly": 6169,
      "_od": 6170,
      "_mob": 6171,
      "_anastom": 6172,
      "_excreted": 6173,
      "_Rem": 6174,
      "_albumin": 6175,
      "arean": 6176,
      "_urea": 6177,
      "med": 6178,
      "uated": 6179,
      "_az": 6180,
      "_PA": 6181,
      "_added": 6182,
      "ochrome": 6183,
      "bladder": 6184,
      "iven": 6185,
      "ician": 6186,
      "Chrom": 6187,
      "Enter": 6188,
      "Iron": 6189,
      "_syndromes": 6190,
      "CTH": 6191,
      "erry": 6192,
      "_determine": 6193,
      "_reductase": 6194,
      "lamydia": 6195,
      "_lapar": 6196,
      "stand": 6197,
      "_Mid": 6198,
      "atelet": 6199,
      "_throughout": 6200,
      "_physiological": 6201,
      "_Cyc": 6202,
      "_HLA": 6203,
      "_splen": 6204,
      "_su": 6205,
      "_inactiv": 6206,
      "_night": 6207,
      "iveic": 6208,
      "ophan": 6209,
      "_Carcinoma": 6210,
      "seal": 6211,
      "_sputum": 6212,
      "_regular": 6213,
      "_fluids": 6214,
      "_Î": 6215,
      "_Eff": 6216,
      "_foll": 6217,
      "_particularly": 6218,
      "arent": 6219,
      "_tone": 6220,
      "amily": 6221,
      "ruption": 6222,
      "_predominantly": 6223,
      "_lumbar": 6224,
      "utism": 6225,
      "Ed": 6226,
      "Presence": 6227,
      "tub": 6228,
      "_heavy": 6229,
      "erson": 6230,
      "_diph": 6231,
      "tibular": 6232,
      "_carbox": 6233,
      "With": 6234,
      "iatic": 6235,
      "_stimulates": 6236,
      "_established": 6237,
      "_average": 6238,
      "osse": 6239,
      "ipple": 6240,
      "_amounts": 6241,
      "_avoided": 6242,
      "oneogenesis": 6243,
      "_depolar": 6244,
      "_mineral": 6245,
      "IR": 6246,
      "Ov": 6247,
      "esarean": 6248,
      "_consequ": 6249,
      "ialysis": 6250,
      "_Rh": 6251,
      "_intermediate": 6252,
      "iazep": 6253,
      "=\"": 6254,
      "oe": 6255,
      "_PG": 6256,
      "lasia": 6257,
      "_generalized": 6258,
      "amins": 6259,
      "_steroid": 6260,
      "_vulgaris": 6261,
      "psych": 6262,
      "_Cyt": 6263,
      "_Es": 6264,
      "_limbs": 6265,
      "_spher": 6266,
      "_lumen": 6267,
      "phagia": 6268,
      "_arrhy": 6269,
      "_midline": 6270,
      "_mitochondria": 6271,
      "ylom": 6272,
      "isons": 6273,
      "_Bl": 6274,
      "Chol": 6275,
      "related": 6276,
      "heochromocytoma": 6277,
      "amo": 6278,
      "uvenile": 6279,
      "vis": 6280,
      "yond": 6281,
      "enn": 6282,
      "_chamb": 6283,
      "uscles": 6284,
      "tenance": 6285,
      "ades": 6286,
      "_blocks": 6287,
      "_design": 6288,
      "_indicator": 6289,
      "_needle": 6290,
      "_anaemia": 6291,
      "_Cardiac": 6292,
      "_mas": 6293,
      "_extends": 6294,
      "_mucous": 6295,
      "_classical": 6296,
      "_flexor": 6297,
      "_ganglia": 6298,
      "_Age": 6299,
      "_Note": 6300,
      "_diffusion": 6301,
      "Child": 6302,
      "_painless": 6303,
      "_giving": 6304,
      "_solid": 6305,
      "_bicarbonate": 6306,
      "_umbilical": 6307,
      "roti": 6308,
      "_Act": 6309,
      "_slightly": 6310,
      "aur": 6311,
      "ike": 6312,
      "urns": 6313,
      "inking": 6314,
      "_advanced": 6315,
      "iance": 6316,
      "iotherapy": 6317,
      "elvic": 6318,
      "Sex": 6319,
      "uller": 6320,
      "ositis": 6321,
      "_room": 6322,
      "_matter": 6323,
      "yptophan": 6324,
      "oks": 6325,
      "_subs": 6326,
      "inosis": 6327,
      "_deafness": 6328,
      "_indicate": 6329,
      "_dest": 6330,
      "_mEq": 6331,
      "_obstructive": 6332,
      "_precurs": 6333,
      "iet": 6334,
      "ecia": 6335,
      "_beyond": 6336,
      "_Oral": 6337,
      "odyn": 6338,
      "_epile": 6339,
      "_cytok": 6340,
      "_princip": 6341,
      "Human": 6342,
      "isis": 6343,
      "_disappear": 6344,
      "ophilia": 6345,
      "_needs": 6346,
      "Nervous": 6347,
      "_pyruvate": 6348,
      "_fusion": 6349,
      "osquit": 6350,
      "_iodine": 6351,
      "ilson": 6352,
      "_oxidation": 6353,
      "Deep": 6354,
      "_Essential": 6355,
      "ging": 6356,
      "municable": 6357,
      "heli": 6358,
      "_consist": 6359,
      "_recent": 6360,
      "_capillaries": 6361,
      "oor": 6362,
      "ensitive": 6363,
      "_constric": 6364,
      "Streptococcus": 6365,
      "Malignant": 6366,
      "_replaced": 6367,
      "_tenderness": 6368,
      "Ver": 6369,
      "ocalcemia": 6370,
      "Drugs": 6371,
      "_Breast": 6372,
      "_coup": 6373,
      "_olig": 6374,
      "_gold": 6375,
      "_vers": 6376,
      "illus": 6377,
      "_motility": 6378,
      "_cardiovascular": 6379,
      "Comp": 6380,
      "_reflexes": 6381,
      "Vas": 6382,
      "eria": 6383,
      "_cric": 6384,
      "_leak": 6385,
      "_cerebellar": 6386,
      "ophilic": 6387,
      "oside": 6388,
      "amilial": 6389,
      "_cardiomyopathy": 6390,
      "Chemotherapy": 6391,
      "_wal": 6392,
      "olateral": 6393,
      "_Do": 6394,
      "aminated": 6395,
      "_repro": 6396,
      "_ischemia": 6397,
      "_meatus": 6398,
      "iation": 6399,
      "_eg": 6400,
      "_expected": 6401,
      "Patient": 6402,
      "_thym": 6403,
      "uction": 6404,
      "_scar": 6405,
      "_plus": 6406,
      "thesis": 6407,
      "_New": 6408,
      "alanine": 6409,
      "_bite": 6410,
      "_Hydro": 6411,
      "_fold": 6412,
      "oplasmosis": 6413,
      "_sampling": 6414,
      "_arterial": 6415,
      "Option": 6416,
      "onatremia": 6417,
      "alt": 6418,
      "het": 6419,
      "ecal": 6420,
      "osquito": 6421,
      "IG": 6422,
      "isomy": 6423,
      "_Glyc": 6424,
      "_intro": 6425,
      "lopecia": 6426,
      "_Chlor": 6427,
      "_him": 6428,
      "BD": 6429,
      "_ging": 6430,
      "_rich": 6431,
      "_carp": 6432,
      "idson": 6433,
      "_bronchial": 6434,
      "cosis": 6435,
      "dose": 6436,
      "actors": 6437,
      "echol": 6438,
      "_outside": 6439,
      "Fat": 6440,
      "pite": 6441,
      "_anim": 6442,
      "acia": 6443,
      "_ampl": 6444,
      "_diver": 6445,
      "_detachment": 6446,
      "_Ser": 6447,
      "_exud": 6448,
      "_arrest": 6449,
      "_iris": 6450,
      "ING": 6451,
      "_palpable": 6452,
      "_orally": 6453,
      "_Beta": 6454,
      "_infusion": 6455,
      "ophthalm": 6456,
      "_Epid": 6457,
      "_infiltration": 6458,
      "_relationship": 6459,
      "OS": 6460,
      "_Except": 6461,
      "_patch": 6462,
      "_mmHg": 6463,
      "_premature": 6464,
      "_diastolic": 6465,
      "_sed": 6466,
      "jug": 6467,
      "_shift": 6468,
      "ickets": 6469,
      "_irrit": 6470,
      "_markers": 6471,
      "_additional": 6472,
      "_follicular": 6473,
      "Urinary": 6474,
      "ulations": 6475,
      "terine": 6476,
      "_testicular": 6477,
      "ogn": 6478,
      "zymes": 6479,
      "grade": 6480,
      "_aggreg": 6481,
      "_symptomatic": 6482,
      "_mitochondrial": 6483,
      "_Mod": 6484,
      "ritical": 6485,
      "_septal": 6486,
      "ABA": 6487,
      "_effic": 6488,
      "_corre": 6489,
      "_pouch": 6490,
      "OP": 6491,
      "ionine": 6492,
      "illance": 6493,
      "_itself": 6494,
      "_thrombocytopenia": 6495,
      "_countries": 6496,
      "rum": 6497,
      "_pic": 6498,
      "stro": 6499,
      "_Neph": 6500,
      "_horizontal": 6501,
      "_hypothyroidism": 6502,
      "omical": 6503,
      "tipation": 6504,
      "ja": 6505,
      "_expressed": 6506,
      "_legs": 6507,
      "lycerol": 6508,
      "tium": 6509,
      "umab": 6510,
      "ogloss": 6511,
      "otropic": 6512,
      "_accompanied": 6513,
      "wn": 6514,
      "induced": 6515,
      "_put": 6516,
      "ece": 6517,
      "_Comp": 6518,
      "_psychiatry": 6519,
      "_Car": 6520,
      "_correspond": 6521,
      "_minute": 6522,
      "_radiotherapy": 6523,
      "_Cat": 6524,
      "_Derm": 6525,
      "_scale": 6526,
      "Thromb": 6527,
      "aracteristic": 6528,
      "Peripheral": 6529,
      "acillus": 6530,
      "====": 6531,
      "_makes": 6532,
      "tural": 6533,
      "rees": 6534,
      "_mortality": 6535,
      "_net": 6536,
      "_Can": 6537,
      "eeb": 6538,
      "_revealed": 6539,
      "_altered": 6540,
      "_adoles": 6541,
      "_synthase": 6542,
      "untary": 6543,
      "_influenza": 6544,
      "orad": 6545,
      "_Te": 6546,
      "luenza": 6547,
      "_hemolysis": 6548,
      "_secretions": 6549,
      "_Bronch": 6550,
      "_ker": 6551,
      "_personality": 6552,
      "terstitial": 6553,
      "_slowly": 6554,
      "_reverse": 6555,
      "emiology": 6556,
      "ector": 6557,
      "_hydroly": 6558,
      "_whether": 6559,
      "Gastro": 6560,
      "iella": 6561,
      "onidine": 6562,
      "_pt": 6563,
      "_Sm": 6564,
      "_Bro": 6565,
      "_hematuria": 6566,
      "Note": 6567,
      "OT": 6568,
      "esthe": 6569,
      "_partic": 6570,
      "versal": 6571,
      "_Respiratory": 6572,
      "_recovery": 6573,
      "aks": 6574,
      "best": 6575,
      "acting": 6576,
      "_ciliary": 6577,
      "idel": 6578,
      "ipolar": 6579,
      "aft": 6580,
      "_directed": 6581,
      "va": 6582,
      "itud": 6583,
      "otoxin": 6584,
      "_paial": 6585,
      "_cleft": 6586,
      "_diuretics": 6587,
      "_sick": 6588,
      "idental": 6589,
      "_defective": 6590,
      "_conc": 6591,
      "_Down": 6592,
      "_whole": 6593,
      "arbox": 6594,
      "_valves": 6595,
      "_respiration": 6596,
      "_yr": 6597,
      "_initially": 6598,
      "_sounds": 6599,
      "vestigation": 6600,
      "tigmine": 6601,
      "strogen": 6602,
      "_Secondary": 6603,
      "_ascending": 6604,
      "EG": 6605,
      "_restric": 6606,
      "gnose": 6607,
      "ipathi": 6608,
      "embrane": 6609,
      "_util": 6610,
      "_green": 6611,
      "_Pages": 6612,
      "_circulating": 6613,
      "ulent": 6614,
      "_meg": 6615,
      "_apparent": 6616,
      "_instrum": 6617,
      "_nodule": 6618,
      "YP": 6619,
      "udine": 6620,
      "_creatinine": 6621,
      "_wid": 6622,
      "change": 6623,
      "_Not": 6624,
      "_diphtheria": 6625,
      "isted": 6626,
      "angitis": 6627,
      "oblast": 6628,
      "_intervention": 6629,
      "fibrom": 6630,
      "_fragment": 6631,
      "_urethral": 6632,
      "_electroly": 6633,
      "_substrate": 6634,
      "rose": 6635,
      "osing": 6636,
      "olipid": 6637,
      "_Hal": 6638,
      "_allows": 6639,
      "_barrier": 6640,
      "_VIII": 6641,
      "_causative": 6642,
      "_massive": 6643,
      "_Diabetes": 6644,
      "_relaxation": 6645,
      "_exhibit": 6646,
      "esterase": 6647,
      "_Superior": 6648,
      "_principle": 6649,
      "Mening": 6650,
      "_stern": 6651,
      "_residual": 6652,
      "_Early": 6653,
      "ories": 6654,
      "ames": 6655,
      "_segments": 6656,
      "_Prop": 6657,
      "_immunoglobulin": 6658,
      "utral": 6659,
      "ophilus": 6660,
      "_fungal": 6661,
      "irology": 6662,
      "_mast": 6663,
      "_fatigue": 6664,
      "iring": 6665,
      "_comm": 6666,
      "_peritoneal": 6667,
      "_medullary": 6668,
      "_fixation": 6669,
      "Cervical": 6670,
      "_sn": 6671,
      "_natural": 6672,
      "_cataly": 6673,
      "_speech": 6674,
      "amycin": 6675,
      "_Thyroid": 6676,
      "enign": 6677,
      "esia": 6678,
      "_Inhibit": 6679,
      "_Protein": 6680,
      "Sm": 6681,
      "_sil": 6682,
      "_foc": 6683,
      "asone": 6684,
      "_animal": 6685,
      "_dementia": 6686,
      "oquine": 6687,
      "_hemorrhagic": 6688,
      "_papillary": 6689,
      "_ips": 6690,
      "_Positive": 6691,
      "aused": 6692,
      "ls": 6693,
      "_scap": 6694,
      "ysterectomy": 6695,
      "_susceptible": 6696,
      "_uses": 6697,
      "_glycolysis": 6698,
      "_protection": 6699,
      "_matrix": 6700,
      "_permeability": 6701,
      "_gets": 6702,
      "_Pr": 6703,
      "iferative": 6704,
      "_Glucose": 6705,
      "ressure": 6706,
      "stead": 6707,
      "alysis": 6708,
      "_mature": 6709,
      "_Ir": 6710,
      "_abuse": 6711,
      "_anaer": 6712,
      "_recurrence": 6713,
      "Py": 6714,
      "ped": 6715,
      "_tal": 6716,
      "illi": 6717,
      "lamps": 6718,
      "_reflux": 6719,
      "_stret": 6720,
      "_determined": 6721,
      "_ingestion": 6722,
      "_Muc": 6723,
      "_diagnose": 6724,
      "ioma": 6725,
      "ocellular": 6726,
      "pe": 6727,
      "_Dutta": 6728,
      "_plane": 6729,
      "_Since": 6730,
      "ocin": 6731,
      "_rhythm": 6732,
      "_anomaly": 6733,
      "_animals": 6734,
      "_AB": 6735,
      "aplasia": 6736,
      "gener": 6737,
      "_transmit": 6738,
      "_included": 6739,
      "_surfaces": 6740,
      "_eyel": 6741,
      "_medications": 6742,
      "thropo": 6743,
      "_clin": 6744,
      "_pediatrics": 6745,
      "_anesthetic": 6746,
      "otassium": 6747,
      "_spin": 6748,
      "plex": 6749,
      "_induce": 6750,
      "_secrete": 6751,
      "_distance": 6752,
      "_soluble": 6753,
      "_carried": 6754,
      "HIV": 6755,
      "head": 6756,
      "_world": 6757,
      "aper": 6758,
      "omycosis": 6759,
      "activity": 6760,
      "Virology": 6761,
      "ham": 6762,
      "_stric": 6763,
      "_deficient": 6764,
      "_Development": 6765,
      "_destro": 6766,
      "bec": 6767,
      "olus": 6768,
      "_extensor": 6769,
      "Recurrent": 6770,
      "_further": 6771,
      "Fetal": 6772,
      "almonella": 6773,
      "_classic": 6774,
      "MI": 6775,
      "_uro": 6776,
      "_Central": 6777,
      "_random": 6778,
      "iotics": 6779,
      "thmias": 6780,
      "_subsequent": 6781,
      "initis": 6782,
      "ortion": 6783,
      "_occup": 6784,
      "_mentioned": 6785,
      "zheimer": 6786,
      "ymme": 6787,
      "_herni": 6788,
      "_smaller": 6789,
      "urner": 6790,
      "Nutrition": 6791,
      "icillin": 6792,
      "_Present": 6793,
      "_inheritance": 6794,
      "_filling": 6795,
      "%,": 6796,
      "_vary": 6797,
      "_Large": 6798,
      "_Thromb": 6799,
      "lexion": 6800,
      "orphine": 6801,
      "_melanoma": 6802,
      "opressin": 6803,
      "Hyd": 6804,
      "_malnutrition": 6805,
      "paired": 6806,
      "chymal": 6807,
      "_cop": 6808,
      "_never": 6809,
      "_fraction": 6810,
      "'.": 6811,
      "ocomp": 6812,
      "uccal": 6813,
      "ogens": 6814,
      "_herpes": 6815,
      "_metastatic": 6816,
      "_how": 6817,
      "_neonate": 6818,
      "_cholin": 6819,
      "_measurement": 6820,
      "_granuloma": 6821,
      "_clearance": 6822,
      "_preparation": 6823,
      "_concentrations": 6824,
      "itudinal": 6825,
      "men": 6826,
      "mental": 6827,
      "_prolapse": 6828,
      "_error": 6829,
      "_carcinomas": 6830,
      "_ather": 6831,
      "_sust": 6832,
      "rand": 6833,
      "_veget": 6834,
      "Alcohol": 6835,
      "_approved": 6836,
      "_familial": 6837,
      "_duodenal": 6838,
      "py": 6839,
      "_Id": 6840,
      "rophyl": 6841,
      "ENTI": 6842,
      "_damaged": 6843,
      "Glut": 6844,
      "reversible": 6845,
      "_spaces": 6846,
      "usually": 6847,
      "veolar": 6848,
      "_interv": 6849,
      "_strains": 6850,
      "_dysp": 6851,
      "_adenocarcinoma": 6852,
      "yphilis": 6853,
      "_gon": 6854,
      "iment": 6855,
      "_rheumatic": 6856,
      "_indirect": 6857,
      "iacin": 6858,
      "holin": 6859,
      "_glycopro": 6860,
      "_Abd": 6861,
      "_Gl": 6862,
      "ylate": 6863,
      "_activities": 6864,
      "Hepat": 6865,
      "_margins": 6866,
      "_differentiate": 6867,
      "ozo": 6868,
      "bor": 6869,
      "_dopamine": 6870,
      "_contraceptive": 6871,
      "_disturbances": 6872,
      "blastoma": 6873,
      "_relation": 6874,
      "arsal": 6875,
      "_polyps": 6876,
      "_consciousness": 6877,
      "Growth": 6878,
      "_mix": 6879,
      "othyroidism": 6880,
      "uteal": 6881,
      "lampsia": 6882,
      "_Cancer": 6883,
      "_Due": 6884,
      "eptid": 6885,
      "_prep": 6886,
      "_Radi": 6887,
      "_leuc": 6888,
      "_Gluc": 6889,
      "_majority": 6890,
      "_electron": 6891,
      "_suture": 6892,
      "isual": 6893,
      "iams": 6894,
      "_parathyroid": 6895,
      "iker": 6896,
      "_hydroxylase": 6897,
      "_simplex": 6898,
      "Median": 6899,
      "bde": 6900,
      "zep": 6901,
      "_vitreous": 6902,
      "_Loss": 6903,
      "embranous": 6904,
      "reater": 6905,
      "lief": 6906,
      "_minimum": 6907,
      "_quanti": 6908,
      "_attem": 6909,
      "Large": 6910,
      "_sta": 6911,
      "odef": 6912,
      "_Micro": 6913,
      "ylalanine": 6914,
      "_vaccines": 6915,
      "cribed": 6916,
      "_dimin": 6917,
      "Maxillary": 6918,
      "_fissure": 6919,
      "ypsin": 6920,
      "_variant": 6921,
      "_column": 6922,
      "_jaw": 6923,
      "ramine": 6924,
      "enzod": 6925,
      "Autosomal": 6926,
      "_parasympathetic": 6927,
      "mL": 6928,
      "_resorption": 6929,
      "tives": 6930,
      "arbit": 6931,
      "Communicable": 6932,
      "_erythema": 6933,
      "_menstrual": 6934,
      "ief": 6935,
      "over": 6936,
      "_intubation": 6937,
      "External": 6938,
      "abdomy": 6939,
      "_usual": 6940,
      "ogenes": 6941,
      "_proteinuria": 6942,
      "Organ": 6943,
      "titution": 6944,
      "otyp": 6945,
      "_Mit": 6946,
      "oprost": 6947,
      "_differentiated": 6948,
      "tronidazole": 6949,
      "_endometrium": 6950,
      "_attacks": 6951,
      "_arteri": 6952,
      "_repoed": 6953,
      "asthenia": 6954,
      "trated": 6955,
      "_lie": 6956,
      "_Enter": 6957,
      "_improve": 6958,
      "_reabsorption": 6959,
      "_localized": 6960,
      "FA": 6961,
      "elen": 6962,
      "eptic": 6963,
      "_Khurana": 6964,
      "oval": 6965,
      "_ischemic": 6966,
      "_pus": 6967,
      "amed": 6968,
      "_MI": 6969,
      "anged": 6970,
      "Medical": 6971,
      "Health": 6972,
      "ythema": 6973,
      "EP": 6974,
      "May": 6975,
      "_Em": 6976,
      "_angina": 6977,
      "_medication": 6978,
      "UM": 6979,
      "osyn": 6980,
      "_ADH": 6981,
      "_arrang": 6982,
      "_respective": 6983,
      "_Wil": 6984,
      "_sepsis": 6985,
      "pend": 6986,
      "_own": 6987,
      "ycystic": 6988,
      "_malformation": 6989,
      "_lipase": 6990,
      "Clo": 6991,
      "Id": 6992,
      "oter": 6993,
      "vasive": 6994,
      "_law": 6995,
      "_Nit": 6996,
      "ungal": 6997,
      "umber": 6998,
      "Hepatic": 6999,
      "_compounds": 7000,
      "_chance": 7001,
      "ginine": 7002,
      "atzung": 7003,
      "Vit": 7004,
      "_Brain": 7005,
      "_deple": 7006,
      "_limit": 7007,
      "_differentiation": 7008,
      "enzodiazep": 7009,
      "motor": 7010,
      "lovir": 7011,
      "_Lower": 7012,
      "_distinct": 7013,
      "osupp": 7014,
      "_neoplasm": 7015,
      "ctomy": 7016,
      "Metabolic": 7017,
      "inger": 7018,
      "aptic": 7019,
      "_jugular": 7020,
      "luding": 7021,
      "anglionic": 7022,
      "_Abnormal": 7023,
      "_HDL": 7024,
      "avirus": 7025,
      "_metastases": 7026,
      "mbry": 7027,
      "_gut": 7028,
      "_Insulin": 7029,
      "Staphylococcus": 7030,
      "odermal": 7031,
      "_alveoli": 7032,
      "fol": 7033,
      "_nons": 7034,
      "eber": 7035,
      "Age": 7036,
      "_PH": 7037,
      "_hallucinations": 7038,
      "_review": 7039,
      "_exce": 7040,
      "_educ": 7041,
      "hydr": 7042,
      "_neuromuscular": 7043,
      "omotor": 7044,
      "odular": 7045,
      "afc": 7046,
      "tructure": 7047,
      "_degrees": 7048,
      "_aw": 7049,
      "ola": 7050,
      "_NAD": 7051,
      "_ACE": 7052,
      "_Of": 7053,
      "_expans": 7054,
      "_follicles": 7055,
      "arbitur": 7056,
      "_till": 7057,
      "_throat": 7058,
      "_Haem": 7059,
      "_Les": 7060,
      "_heparin": 7061,
      "_anticoagul": 7062,
      "arctation": 7063,
      "Test": 7064,
      "amples": 7065,
      "_imper": 7066,
      "_thereby": 7067,
      "_punct": 7068,
      "_fibrillation": 7069,
      "_trop": 7070,
      "Thyro": 7071,
      "_ammon": 7072,
      "omalacia": 7073,
      "_behaviour": 7074,
      "_previously": 7075,
      "_laser": 7076,
      "arring": 7077,
      "_obstetrics": 7078,
      "_strain": 7079,
      "renic": 7080,
      "bda": 7081,
      "_blocking": 7082,
      "_entry": 7083,
      "_ste": 7084,
      "rogenic": 7085,
      "_object": 7086,
      "_Physical": 7087,
      "_folds": 7088,
      "icket": 7089,
      "thetic": 7090,
      "thral": 7091,
      "chlor": 7092,
      "_apoptosis": 7093,
      "ercury": 7094,
      "BB": 7095,
      "arachnoid": 7096,
      "_plant": 7097,
      "AMP": 7098,
      "PR": 7099,
      "ux": 7100,
      "_reactive": 7101,
      "teral": 7102,
      "_rheumatoid": 7103,
      "_inser": 7104,
      "Optic": 7105,
      "due": 7106,
      "aca": 7107,
      "celer": 7108,
      "_compens": 7109,
      "_complexes": 7110,
      "cephalus": 7111,
      "enter": 7112,
      "Intra": 7113,
      "lottis": 7114,
      "_seizure": 7115,
      "_ipsilateral": 7116,
      "Syn": 7117,
      "_reversible": 7118,
      "_lev": 7119,
      "also": 7120,
      "itt": 7121,
      "olk": 7122,
      "_scalp": 7123,
      "_Toxicology": 7124,
      "Gram": 7125,
      "itude": 7126,
      "_glass": 7127,
      "_contents": 7128,
      "_specificity": 7129,
      "_osteomyelitis": 7130,
      "_neuron": 7131,
      "encies": 7132,
      "_deficit": 7133,
      "_chamber": 7134,
      "down": 7135,
      "_worm": 7136,
      "_repeat": 7137,
      "_radius": 7138,
      "Associated": 7139,
      "bal": 7140,
      "acarp": 7141,
      "_Dr": 7142,
      "_giant": 7143,
      "ectasis": 7144,
      "orexia": 7145,
      "_Lip": 7146,
      "oxif": 7147,
      "eed": 7148,
      "ostigmine": 7149,
      "_eating": 7150,
      "_AN": 7151,
      "romal": 7152,
      "_ald": 7153,
      "_cand": 7154,
      "afa": 7155,
      "_deaths": 7156,
      "_hydrogen": 7157,
      "_ER": 7158,
      "uscitation": 7159,
      "_facilit": 7160,
      "Decrease": 7161,
      "_endothelium": 7162,
      "_belong": 7163,
      "_crest": 7164,
      "ications": 7165,
      "omb": 7166,
      "opo": 7167,
      "oxygen": 7168,
      "_hereditary": 7169,
      "_characteristically": 7170,
      "ysmal": 7171,
      "_check": 7172,
      "_Inferior": 7173,
      "assive": 7174,
      "_vena": 7175,
      "According": 7176,
      "aer": 7177,
      "ares": 7178,
      "istance": 7179,
      "_allergic": 7180,
      "âĢĿ": 7181,
      "_gradi": 7182,
      "BV": 7183,
      "bff": 7184,
      "mus": 7185,
      "_Max": 7186,
      "_coic": 7187,
      "_hypothalamus": 7188,
      "idone": 7189,
      "_Surgical": 7190,
      "_coma": 7191,
      "oxid": 7192,
      "_unknown": 7193,
      "Immunology": 7194,
      "specific": 7195,
      "_too": 7196,
      "tivity": 7197,
      "posing": 7198,
      "_organic": 7199,
      "_mmol": 7200,
      "_ileum": 7201,
      "Dig": 7202,
      "oxidase": 7203,
      "_granulomatous": 7204,
      "_earlier": 7205,
      "_degradation": 7206,
      "Panc": 7207,
      "_Ket": 7208,
      "angeal": 7209,
      "angioma": 7210,
      "azepine": 7211,
      "SE": 7212,
      "oclonal": 7213,
      "onazole": 7214,
      "rene": 7215,
      "_bag": 7216,
      "_stored": 7217,
      "cyte": 7218,
      "_confirmed": 7219,
      "_ren": 7220,
      "_ductus": 7221,
      "_chromosomes": 7222,
      "CF": 7223,
      "_pin": 7224,
      "_magn": 7225,
      "_gross": 7226,
      "_percentage": 7227,
      "_alternative": 7228,
      "_diveic": 7229,
      "_decreasing": 7230,
      "_serotonin": 7231,
      "_Leuk": 7232,
      "_Essentials": 7233,
      "_making": 7234,
      "Trauma": 7235,
      "_HPV": 7236,
      "_Function": 7237,
      "_tubes": 7238,
      "rotizing": 7239,
      "_planning": 7240,
      "ready": 7241,
      "Positive": 7242,
      "orus": 7243,
      "_bar": 7244,
      "_symme": 7245,
      "_pathways": 7246,
      "Commonest": 7247,
      "_consumption": 7248,
      "_Davidson": 7249,
      "_rigidity": 7250,
      "allopian": 7251,
      "OX": 7252,
      "_PR": 7253,
      "adox": 7254,
      "aba": 7255,
      "_transient": 7256,
      "_cover": 7257,
      "_brad": 7258,
      "_splenic": 7259,
      "unnel": 7260,
      "enes": 7261,
      "icitis": 7262,
      "_incubation": 7263,
      "IgG": 7264,
      "beb": 7265,
      "_elastic": 7266,
      "_vital": 7267,
      "_Bo": 7268,
      "_interfer": 7269,
      "_epidemic": 7270,
      "_keratitis": 7271,
      "bce": 7272,
      "dy": 7273,
      "_sa": 7274,
      "_TSH": 7275,
      "_Psych": 7276,
      "_Over": 7277,
      "_falls": 7278,
      "Abdominal": 7279,
      "_doctor": 7280,
      "_typhus": 7281,
      "idom": 7282,
      "_descending": 7283,
      "_seconds": 7284,
      "athione": 7285,
      "Patients": 7286,
      "_terat": 7287,
      "_wind": 7288,
      "_abduction": 7289,
      "undant": 7290,
      "ften": 7291,
      "Prog": 7292,
      "Hypert": 7293,
      "lebs": 7294,
      "romised": 7295,
      "abf": 7296,
      "_minim": 7297,
      "ococci": 7298,
      "BP": 7299,
      "yel": 7300,
      "ero": 7301,
      "_Chem": 7302,
      "_Lev": 7303,
      "_fatal": 7304,
      "_osteoporosis": 7305,
      "_eros": 7306,
      "org": 7307,
      "une": 7308,
      "_Chol": 7309,
      "_progression": 7310,
      "_basement": 7311,
      "_linear": 7312,
      "enzae": 7313,
      "Tuberculosis": 7314,
      "EL": 7315,
      "Factor": 7316,
      "Gr": 7317,
      "reak": 7318,
      "_intermittent": 7319,
      "_microscopic": 7320,
      "_streptococci": 7321,
      "_scapula": 7322,
      "Ple": 7323,
      "iate": 7324,
      "udev": 7325,
      "_Infections": 7326,
      "enced": 7327,
      "_planus": 7328,
      "_actions": 7329,
      "_prognostic": 7330,
      "gnitive": 7331,
      "_VII": 7332,
      "_surge": 7333,
      "_brachial": 7334,
      "turator": 7335,
      "_certain": 7336,
      "_complaints": 7337,
      "oustic": 7338,
      "ondition": 7339,
      "_Ure": 7340,
      "ivalent": 7341,
      "lavicular": 7342,
      "TR": 7343,
      "thra": 7344,
      "locity": 7345,
      "cells": 7346,
      "_elimination": 7347,
      "_efficacy": 7348,
      "cl": 7349,
      "ipine": 7350,
      "raine": 7351,
      "afd": 7352,
      "_supplement": 7353,
      "_tendency": 7354,
      "_Presence": 7355,
      "angu": 7356,
      "_manual": 7357,
      "_Associated": 7358,
      "_clotting": 7359,
      "_whose": 7360,
      "icious": 7361,
      "akes": 7362,
      "_attachment": 7363,
      "ysaccharide": 7364,
      "_words": 7365,
      "Two": 7366,
      "_consistent": 7367,
      "_keratin": 7368,
      "_displacement": 7369,
      "Lead": 7370,
      "aef": 7371,
      "_denti": 7372,
      "_rh": 7373,
      "abec": 7374,
      "queous": 7375,
      "_contractions": 7376,
      "udevan": 7377,
      "_Fr": 7378,
      "_intern": 7379,
      "brain": 7380,
      "pin": 7381,
      "_cure": 7382,
      "_wors": 7383,
      "_move": 7384,
      "_outcome": 7385,
      "_vesicles": 7386,
      "_bif": 7387,
      "imb": 7388,
      "_Forensic": 7389,
      "Path": 7390,
      "carb": 7391,
      "uh": 7392,
      "_absolute": 7393,
      "Adrenal": 7394,
      "ozyg": 7395,
      "_topical": 7396,
      "Myc": 7397,
      "Rh": 7398,
      "VC": 7399,
      "work": 7400,
      "rosp": 7401,
      "opharynx": 7402,
      "_pari": 7403,
      "_operative": 7404,
      "_pigmentation": 7405,
      "_episode": 7406,
      "ranulom": 7407,
      "tia": 7408,
      "_eth": 7409,
      "_gel": 7410,
      "_RA": 7411,
      "hemia": 7412,
      "_depending": 7413,
      "_stiff": 7414,
      "_crystals": 7415,
      "Ax": 7416,
      "_sickle": 7417,
      "_(<": 7418,
      "cher": 7419,
      "_Injury": 7420,
      "_trach": 7421,
      "_hyperophy": 7422,
      "erebellar": 7423,
      "New": 7424,
      "uity": 7425,
      "_mechanical": 7426,
      "abdom": 7427,
      "_perf": 7428,
      "iocarcinoma": 7429,
      "_extend": 7430,
      "tracheal": 7431,
      "_parietal": 7432,
      "adc": 7433,
      "Plasma": 7434,
      "_waste": 7435,
      "_DOC": 7436,
      "illae": 7437,
      "_Fracture": 7438,
      "oked": 7439,
      "_caries": 7440,
      "Radial": 7441,
      "_dietary": 7442,
      "_dense": 7443,
      "_lady": 7444,
      "otoxicity": 7445,
      "pergillus": 7446,
      "inn": 7447,
      "_ot": 7448,
      "adf": 7449,
      "_Ins": 7450,
      "_parts": 7451,
      "Bilateral": 7452,
      "_lactate": 7453,
      "_quadrant": 7454,
      "ycobacterium": 7455,
      "_bradycardia": 7456,
      "ulb": 7457,
      "ysms": 7458,
      "_opioid": 7459,
      "olase": 7460,
      "_incor": 7461,
      "_perfusion": 7462,
      "_veebral": 7463,
      "_benefit": 7464,
      "onscious": 7465,
      "_specimen": 7466,
      "_ligaments": 7467,
      "_vaccination": 7468,
      "_Systemic": 7469,
      "_aggressive": 7470,
      "_RBCs": 7471,
      "_enhance": 7472,
      "_plaques": 7473,
      "_visceral": 7474,
      "Fl": 7475,
      "Phys": 7476,
      "afb": 7477,
      "_confusion": 7478,
      "_home": 7479,
      "_Sur": 7480,
      "ometrial": 7481,
      "odeficiency": 7482,
      "_theory": 7483,
      "_Poly": 7484,
      "_Nervous": 7485,
      "transmit": 7486,
      "_hold": 7487,
      "_Ill": 7488,
      "_dehydration": 7489,
      "ongation": 7490,
      "_collection": 7491,
      "ishment": 7492,
      "plenomegaly": 7493,
      "arate": 7494,
      "opical": 7495,
      "reatening": 7496,
      "_Virus": 7497,
      "_enamel": 7498,
      "_amenorrhea": 7499,
      "_Vasudevan": 7500,
      "Eff": 7501,
      "Hy": 7502,
      "rich": 7503,
      "xine": 7504,
      "proate": 7505,
      "_sufficient": 7506,
      "_ankle": 7507,
      "_alcoholic": 7508,
      "lasm": 7509,
      "ancomycin": 7510,
      "_obesity": 7511,
      "ylomicron": 7512,
      "itonin": 7513,
      "_already": 7514,
      "ollagen": 7515,
      "_spontaneously": 7516,
      "yridox": 7517,
      "_gradient": 7518,
      "aloblastic": 7519,
      "_plan": 7520,
      "_lining": 7521,
      "_final": 7522,
      "ocortic": 7523,
      "_Pe": 7524,
      "_Neck": 7525,
      "Leuk": 7526,
      "_cast": 7527,
      "asure": 7528,
      "_inspiration": 7529,
      "caine": 7530,
      "lospor": 7531,
      "_definitive": 7532,
      "_Children": 7533,
      "amethasone": 7534,
      "%).": 7535,
      "Some": 7536,
      "_tyrosine": 7537,
      "_cod": 7538,
      "elf": 7539,
      "eae": 7540,
      "_stimulate": 7541,
      "aeb": 7542,
      "son": 7543,
      "rec": 7544,
      "_mosquito": 7545,
      "_Prac": 7546,
      "Ang": 7547,
      "ersistent": 7548,
      "_microbiology": 7549,
      "_emphysema": 7550,
      "stable": 7551,
      "_interosse": 7552,
      "_remaining": 7553,
      "arfan": 7554,
      "_tibial": 7555,
      "Gastric": 7556,
      "_cost": 7557,
      "itional": 7558,
      "raphy": 7559,
      "othermia": 7560,
      "_pathological": 7561,
      "ritin": 7562,
      "Bacteria": 7563,
      "_Organ": 7564,
      "_sweating": 7565,
      "oplasty": 7566,
      "urk": 7567,
      "_Men": 7568,
      "_mode": 7569,
      "_cords": 7570,
      "_film": 7571,
      "_nitrogen": 7572,
      "uitable": 7573,
      "lebsiella": 7574,
      "Direct": 7575,
      "_replication": 7576,
      "month": 7577,
      "_aged": 7578,
      "artment": 7579,
      "_Hen": 7580,
      "_partial": 7581,
      "apsular": 7582,
      "_gallbladder": 7583,
      "Acetyl": 7584,
      "Eth": 7585,
      "Hb": 7586,
      "_expect": 7587,
      "_cava": 7588,
      "lottic": 7589,
      "_etiology": 7590,
      "MB": 7591,
      "oform": 7592,
      "_SI": 7593,
      "orep": 7594,
      "_atypical": 7595,
      "_transcription": 7596,
      "ervo": 7597,
      "_actin": 7598,
      "%),": 7599,
      "bcc": 7600,
      "romycin": 7601,
      "iparum": 7602,
      "bbf": 7603,
      "epid": 7604,
      "_recip": 7605,
      "ochlear": 7606,
      "oresis": 7607,
      "_submuc": 7608,
      "_About": 7609,
      "alciparum": 7610,
      "_catal": 7611,
      "_plaque": 7612,
      "_divertic": 7613,
      "_bud": 7614,
      "_touch": 7615,
      "_testosterone": 7616,
      "Trich": 7617,
      "_sulfate": 7618,
      "Major": 7619,
      "opol": 7620,
      "pleen": 7621,
      "_quality": 7622,
      "Bacterial": 7623,
      "Maximum": 7624,
      "_Williams": 7625,
      "zepam": 7626,
      "block": 7627,
      "fed": 7628,
      "_cub": 7629,
      "_cholecyst": 7630,
      "avage": 7631,
      "_contaminated": 7632,
      "_techniques": 7633,
      "efficient": 7634,
      "Lab": 7635,
      "_SY": 7636,
      "_stabil": 7637,
      "_Fever": 7638,
      "enicill": 7639,
      "_Tumor": 7640,
      "esthetics": 7641,
      "abdominal": 7642,
      "_might": 7643,
      "_Major": 7644,
      "_granulomatosis": 7645,
      "acetate": 7646,
      "_reticulum": 7647,
      "_ens": 7648,
      "inetics": 7649,
      "_ventral": 7650,
      "_sharp": 7651,
      "_diff": 7652,
      "oplasms": 7653,
      "_columnar": 7654,
      "ysteine": 7655,
      "_taste": 7656,
      "enol": 7657,
      "_shaft": 7658,
      "_KD": 7659,
      "_jejun": 7660,
      "ercal": 7661,
      "_intravascular": 7662,
      "_collapse": 7663,
      "Gu": 7664,
      "terus": 7665,
      "_inhibited": 7666,
      "_agonists": 7667,
      "_contribute": 7668,
      "aud": 7669,
      "bbd": 7670,
      "ani": 7671,
      "IgA": 7672,
      "Local": 7673,
      "bef": 7674,
      "feb": 7675,
      "Â°": 7676,
      "_Hodgkin": 7677,
      "_vect": 7678,
      "ocardium": 7679,
      "_standing": 7680,
      "_pubey": 7681,
      "infection": 7682,
      "_HBV": 7683,
      "depress": 7684,
      "Harrison": 7685,
      "earing": 7686,
      "_perit": 7687,
      "_hyperp": 7688,
      "_amp": 7689,
      "_hematoma": 7690,
      "oglobul": 7691,
      "ondylitis": 7692,
      "_fully": 7693,
      "hist": 7694,
      "_os": 7695,
      "_anter": 7696,
      "_hemorrh": 7697,
      "_independent": 7698,
      "_nucleic": 7699,
      "_school": 7700,
      "_Val": 7701,
      "_lymphoid": 7702,
      "_systems": 7703,
      "_polio": 7704,
      "_empt": 7705,
      "engue": 7706,
      "_rejection": 7707,
      "actant": 7708,
      "_Upper": 7709,
      "_passing": 7710,
      "Clostridium": 7711,
      "_exclud": 7712,
      "_progress": 7713,
      "mediated": 7714,
      "_demonstrated": 7715,
      "_cyanosis": 7716,
      "_ech": 7717,
      "_nor": 7718,
      "_Amino": 7719,
      "erman": 7720,
      "_bias": 7721,
      "_disturbance": 7722,
      "_trachea": 7723,
      "max": 7724,
      "pr": 7725,
      "_come": 7726,
      "_NSA": 7727,
      "_physician": 7728,
      "_ribs": 7729,
      "_erythematous": 7730,
      "_achieved": 7731,
      "_adhesion": 7732,
      "reening": 7733,
      "_laryng": 7734,
      "amazepine": 7735,
      "adb": 7736,
      "_Risk": 7737,
      "oides": 7738,
      "_ulceration": 7739,
      "_spermat": 7740,
      "_programme": 7741,
      "odynamic": 7742,
      "onyl": 7743,
      "_unlike": 7744,
      "_helpful": 7745,
      "lossopharyngeal": 7746,
      "PI": 7747,
      "inter": 7748,
      "_away": 7749,
      "traindic": 7750,
      "etine": 7751,
      "issue": 7752,
      "_dilation": 7753,
      "_core": 7754,
      "_Sec": 7755,
      "_spectrum": 7756,
      "_Streptococcus": 7757,
      "_cytoplasmic": 7758,
      "_trigeminal": 7759,
      "_Calcium": 7760,
      "cycline": 7761,
      "_tubercle": 7762,
      "orepinephrine": 7763,
      "Function": 7764,
      "_reaches": 7765,
      "_metal": 7766,
      "_amb": 7767,
      "IIMS": 7768,
      "apping": 7769,
      "othelial": 7770,
      "ivacaine": 7771,
      "rology": 7772,
      "omorphic": 7773,
      "_AL": 7774,
      "_stas": 7775,
      "_drains": 7776,
      "lopia": 7777,
      "_otherwise": 7778,
      "_oxal": 7779,
      "_Adverse": 7780,
      "_Sho": 7781,
      "rays": 7782,
      "left": 7783,
      "igure": 7784,
      "_propor": 7785,
      "ibly": 7786,
      "_perc": 7787,
      "roliferative": 7788,
      "_suppress": 7789,
      "anasal": 7790,
      "_galact": 7791,
      "_Iron": 7792,
      "_Psychiatry": 7793,
      "otension": 7794,
      "_supr": 7795,
      "embers": 7796,
      "adequate": 7797,
      "Stomach": 7798,
      "tibility": 7799,
      "_advant": 7800,
      "_lamina": 7801,
      "eminated": 7802,
      "_Basic": 7803,
      "_onc": 7804,
      "_enough": 7805,
      "iochemical": 7806,
      "_Prost": 7807,
      "_delay": 7808,
      "_lacrimal": 7809,
      "aturated": 7810,
      "_troph": 7811,
      "_IX": 7812,
      "ferenti": 7813,
      "_persist": 7814,
      "GL": 7815,
      "Pr": 7816,
      "Any": 7817,
      "obarb": 7818,
      "_Only": 7819,
      "ganglionic": 7820,
      "light": 7821,
      "_cry": 7822,
      "lea": 7823,
      "_intensity": 7824,
      "_Refer": 7825,
      "_hyperparathyroidism": 7826,
      "phyria": 7827,
      "_ester": 7828,
      "_maintained": 7829,
      "_metabolized": 7830,
      "_modified": 7831,
      "_transferase": 7832,
      "Gall": 7833,
      "UL": 7834,
      "_{": 7835,
      "zapine": 7836,
      "itology": 7837,
      "pher": 7838,
      "_PCO": 7839,
      "_detion": 7840,
      "_arising": 7841,
      "_sense": 7842,
      "_scr": 7843,
      "_traumatic": 7844,
      "lectro": 7845,
      "_respectively": 7846,
      "factor": 7847,
      "iqu": 7848,
      "_proj": 7849,
      "_From": 7850,
      "ylcholine": 7851,
      "_occipital": 7852,
      "_Peripheral": 7853,
      "_conjunctiva": 7854,
      "_experience": 7855,
      "Ves": 7856,
      "_sent": 7857,
      "idiasis": 7858,
      "_heard": 7859,
      "ystag": 7860,
      "ramidal": 7861,
      "IU": 7862,
      "VP": 7863,
      "_Less": 7864,
      ").*": 7865,
      "_apical": 7866,
      "arrisons": 7867,
      "_record": 7868,
      "_reliable": 7869,
      "_practice": 7870,
      "_Volume": 7871,
      "Fr": 7872,
      "bee": 7873,
      "fel": 7874,
      "_psoriasis": 7875,
      "_mRNA": 7876,
      "_adip": 7877,
      "_maintenance": 7878,
      "_distinguish": 7879,
      "_lined": 7880,
      "_ray": 7881,
      "_Prog": 7882,
      "_granular": 7883,
      "rett": 7884,
      "_thrombo": 7885,
      "fibromatosis": 7886,
      "Rib": 7887,
      "onography": 7888,
      "_isch": 7889,
      "ranolol": 7890,
      "_Gastro": 7891,
      "epithelial": 7892,
      "_longitudinal": 7893,
      "_cyclo": 7894,
      "_carries": 7895,
      "inflammatory": 7896,
      "_identify": 7897,
      "Only": 7898,
      "Usually": 7899,
      "_MHC": 7900,
      "_rays": 7901,
      "ifically": 7902,
      "Superficial": 7903,
      "Radi": 7904,
      "ytocin": 7905,
      "_vagus": 7906,
      "_clus": 7907,
      "_angiography": 7908,
      "_gravis": 7909,
      "_focus": 7910,
      "otonic": 7911,
      "_Hea": 7912,
      "peritoneal": 7913,
      "_covered": 7914,
      "_fluoride": 7915,
      "ercalcemia": 7916,
      "cus": 7917,
      "_inability": 7918,
      "ustrated": 7919,
      "ulomotor": 7920,
      "_salts": 7921,
      "cythemia": 7922,
      "lutination": 7923,
      "Squamous": 7924,
      "mes": 7925,
      "worm": 7926,
      "zo": 7927,
      "aget": 7928,
      "_intense": 7929,
      "ussion": 7930,
      "_tail": 7931,
      "_quick": 7932,
      "_prone": 7933,
      "_situated": 7934,
      "About": 7935,
      "DM": 7936,
      "third": 7937,
      "ithromycin": 7938,
      "_ACTH": 7939,
      "_epiph": 7940,
      "igmentation": 7941,
      "ontinence": 7942,
      "Abdomen": 7943,
      "_pericarditis": 7944,
      "_accessory": 7945,
      "ulopathy": 7946,
      "_mind": 7947,
      "asing": 7948,
      "_Hall": 7949,
      "_inhibitory": 7950,
      "_limiting": 7951,
      "oniaz": 7952,
      "_expansion": 7953,
      "astr": 7954,
      "_application": 7955,
      "bdc": 7956,
      "_nephrotic": 7957,
      "rectomy": 7958,
      "_principal": 7959,
      "cor": 7960,
      "_passage": 7961,
      "Dil": 7962,
      "PL": 7963,
      "_pox": 7964,
      "amol": 7965,
      "_brevis": 7966,
      "_antagonists": 7967,
      "_mediastinum": 7968,
      "_instead": 7969,
      "_barium": 7970,
      "_Mening": 7971,
      "atified": 7972,
      "_mood": 7973,
      "brid": 7974,
      "Methyl": 7975,
      "fac": 7976,
      "estive": 7977,
      "_firm": 7978,
      "_voice": 7979,
      "_disability": 7980,
      "afety": 7981,
      "Neph": 7982,
      "_communication": 7983,
      "Em": 7984,
      "Val": 7985,
      "lated": 7986,
      "osol": 7987,
      "_Ray": 7988,
      "_admitted": 7989,
      "etite": 7990,
      "Measles": 7991,
      "_bonds": 7992,
      "_extremely": 7993,
      "_surveillance": 7994,
      "Rheumatoid": 7995,
      "SLE": 7996,
      "_fear": 7997,
      "_ann": 7998,
      "_intoxic": 7999,
      "_Pharmacology": 8000,
      "ystagmus": 8001,
      "IF": 8002,
      "nem": 8003,
      "terns": 8004,
      "_lid": 8005,
      "_hypop": 8006,
      "olemia": 8007,
      "_laterally": 8008,
      "_passive": 8009,
      "_intercourse": 8010,
      "_epidermis": 8011,
      "bital": 8012,
      "_oesophagus": 8013,
      "ley": 8014,
      "platin": 8015,
      "_Ov": 8016,
      "_restriction": 8017,
      "teg": 8018,
      "_Ang": 8019,
      "_Neu": 8020,
      "_oval": 8021,
      "_postoperative": 8022,
      "_QRS": 8023,
      "_recognized": 8024,
      "Present": 8025,
      "_MEN": 8026,
      "ffe": 8027,
      "_fragments": 8028,
      "olecular": 8029,
      "Risk": 8030,
      "oric": 8031,
      "_Pur": 8032,
      "_traction": 8033,
      "_edge": 8034,
      "_parame": 8035,
      "_succin": 8036,
      "Absent": 8037,
      "_corpus": 8038,
      "Second": 8039,
      "hex": 8040,
      "_bio": 8041,
      "lel": 8042,
      "_Circ": 8043,
      "_abundant": 8044,
      "icken": 8045,
      "_myel": 8046,
      "_autonomic": 8047,
      "arsh": 8048,
      "Dem": 8049,
      "Mo": 8050,
      "Main": 8051,
      "NH": 8052,
      "emide": 8053,
      "_Chest": 8054,
      "osteal": 8055,
      "_uric": 8056,
      "phosphamide": 8057,
      "_undergoes": 8058,
      "holinergic": 8059,
      "icketts": 8060,
      "_Main": 8061,
      "itial": 8062,
      "_Fat": 8063,
      "_afferent": 8064,
      "_groove": 8065,
      "_immunization": 8066,
      "_Staphylococcus": 8067,
      "Exc": 8068,
      "_numerous": 8069,
      "Lo": 8070,
      "_unable": 8071,
      "orning": 8072,
      "_preventing": 8073,
      "_SA": 8074,
      "_Mc": 8075,
      "_preserved": 8076,
      "ebral": 8077,
      "_picture": 8078,
      "_protr": 8079,
      "_compar": 8080,
      "_posteriorly": 8081,
      "_demonstrate": 8082,
      "lein": 8083,
      "acil": 8084,
      "tria": 8085,
      "ample": 8086,
      "_stroma": 8087,
      "ubella": 8088,
      "pler": 8089,
      "_incomplete": 8090,
      "_despite": 8091,
      "_cholest": 8092,
      "_separated": 8093,
      "aac": 8094,
      "flex": 8095,
      "ems": 8096,
      "_CMV": 8097,
      "_contral": 8098,
      "........": 8099,
      "Nucle": 8100,
      "lipid": 8101,
      "_resuscitation": 8102,
      "_emo": 8103,
      "_structural": 8104,
      "Rob": 8105,
      "Vag": 8106,
      "_neutral": 8107,
      "_extended": 8108,
      "Bleeding": 8109,
      "_morb": 8110,
      "idate": 8111,
      "ondylar": 8112,
      "_donor": 8113,
      "_Laboratory": 8114,
      "_education": 8115,
      "fec": 8116,
      "ients": 8117,
      "onor": 8118,
      "isms": 8119,
      "_antidepress": 8120,
      "akia": 8121,
      "_pterygoid": 8122,
      "sub": 8123,
      "_exchange": 8124,
      "illar": 8125,
      "_Fetal": 8126,
      "cytosis": 8127,
      "_contralateral": 8128,
      "Lys": 8129,
      "juries": 8130,
      "sup": 8131,
      "_assay": 8132,
      "_influenzae": 8133,
      "_Malignant": 8134,
      "_receive": 8135,
      "urc": 8136,
      "_regulation": 8137,
      "formations": 8138,
      "_blockade": 8139,
      "_sweat": 8140,
      "Symptoms": 8141,
      "aab": 8142,
      "_members": 8143,
      "letion": 8144,
      "_Muscle": 8145,
      "actam": 8146,
      "_endocrine": 8147,
      "_calculated": 8148,
      "_employ": 8149,
      "ullerian": 8150,
      "viral": 8151,
      "_fructose": 8152,
      "_cholera": 8153,
      "_psychosis": 8154,
      "Ter": 8155,
      "_sun": 8156,
      "iative": 8157,
      "_nephritis": 8158,
      "_bulb": 8159,
      "Abnormal": 8160,
      "oniazid": 8161,
      "gl": 8162,
      "_idiopathic": 8163,
      "_Sim": 8164,
      "ify": 8165,
      "_GFR": 8166,
      "bcb": 8167,
      "bcf": 8168,
      "_velocity": 8169,
      "_cortic": 8170,
      "_puls": 8171,
      "_suppression": 8172,
      "_chromosomal": 8173,
      "where": 8174,
      "_forward": 8175,
      "_Mes": 8176,
      "ptosis": 8177,
      "_Anemia": 8178,
      "bbb": 8179,
      "_sensor": 8180,
      "Cyst": 8181,
      "eratin": 8182,
      "Ulnar": 8183,
      "_inhalation": 8184,
      "_far": 8185,
      "oneal": 8186,
      "_MO": 8187,
      "_congestion": 8188,
      "_Intra": 8189,
      "andard": 8190,
      "_aboion": 8191,
      "igmented": 8192,
      "_neuritis": 8193,
      "_extraction": 8194,
      "oreceptors": 8195,
      "Single": 8196,
      "_aspirin": 8197,
      "_endemic": 8198,
      "aaa": 8199,
      "elvis": 8200,
      "lessness": 8201,
      "oacetate": 8202,
      "_Invol": 8203,
      "_regimen": 8204,
      "_biological": 8205,
      "bohydrates": 8206,
      "TT": 8207,
      "_infective": 8208,
      "_series": 8209,
      "_elements": 8210,
      "_tends": 8211,
      "rsenic": 8212,
      "rectal": 8213,
      "Rect": 8214,
      "ands": 8215,
      "_ye": 8216,
      "_vasoconstriction": 8217,
      "_workers": 8218,
      "_roots": 8219,
      "cephaly": 8220,
      "MGE": 8221,
      "dependent": 8222,
      "alatine": 8223,
      "_mic": 8224,
      "_thr": 8225,
      "_Katzung": 8226,
      "_histological": 8227,
      "_tempor": 8228,
      "USG": 8229,
      "_amyloidosis": 8230,
      "ostatin": 8231,
      "ranch": 8232,
      "_signal": 8233,
      "_polar": 8234,
      "_ventricles": 8235,
      "_wounds": 8236,
      "Diffuse": 8237,
      "Sin": 8238,
      "nic": 8239,
      "ached": 8240,
      "_fiber": 8241,
      "ractive": 8242,
      "_pubic": 8243,
      "_pupillary": 8244,
      "_tolerance": 8245,
      "_Sodium": 8246,
      "owder": 8247,
      "bba": 8248,
      "_macular": 8249,
      "Schizophrenia": 8250,
      "_ascites": 8251,
      "Mechanism": 8252,
      "ply": 8253,
      "ala": 8254,
      "rani": 8255,
      "_spores": 8256,
      "_Glut": 8257,
      "arrhea": 8258,
      "transfer": 8259,
      "PATH": 8260,
      "_tonsil": 8261,
      "Pap": 8262,
      "SO": 8263,
      "_cement": 8264,
      "_critical": 8265,
      "_pink": 8266,
      "oluble": 8267,
      "eprosy": 8268,
      "_iii": 8269,
      "bca": 8270,
      "_gluconeogenesis": 8271,
      "_filtration": 8272,
      "apsone": 8273,
      "_Abdominal": 8274,
      "bles": 8275,
      "_sarc": 8276,
      "_refer": 8277,
      "atell": 8278,
      "_meal": 8279,
      "bdd": 8280,
      "bfb": 8281,
      "_soon": 8282,
      "_successful": 8283,
      "_neglig": 8284,
      "Ect": 8285,
      "_draw": 8286,
      "ods": 8287,
      "_disco": 8288,
      "_Tripathi": 8289,
      "_conveed": 8290,
      "TC": 8291,
      "aea": 8292,
      "ephal": 8293,
      "_saturation": 8294,
      "_fel": 8295,
      "_acceler": 8296,
      "_Growth": 8297,
      "_Gynec": 8298,
      "minoglyc": 8299,
      "_unless": 8300,
      "_bleed": 8301,
      "_peptic": 8302,
      "_filled": 8303,
      "_epilepsy": 8304,
      "Simple": 8305,
      "_Ster": 8306,
      "_leth": 8307,
      "_eng": 8308,
      "isseria": 8309,
      "ylosing": 8310,
      "nios": 8311,
      "_collateral": 8312,
      "_lobes": 8313,
      "HLA": 8314,
      "retion": 8315,
      "asitology": 8316,
      "olality": 8317,
      "_chances": 8318,
      "_attention": 8319,
      "_compr": 8320,
      "orescence": 8321,
      "CSF": 8322,
      "omed": 8323,
      "_load": 8324,
      "_gastr": 8325,
      "reshold": 8326,
      "bad": 8327,
      "alg": 8328,
      "plas": 8329,
      "iprof": 8330,
      "_appar": 8331,
      "_significantly": 8332,
      "illoma": 8333,
      "_million": 8334,
      "_accurate": 8335,
      "Bas": 8336,
      "ormon": 8337,
      "_obl": 8338,
      "_Deep": 8339,
      "_requirement": 8340,
      "eef": 8341,
      "_gamma": 8342,
      "_stained": 8343,
      "cerative": 8344,
      "reptomycin": 8345,
      "_digital": 8346,
      "ernic": 8347,
      "Down": 8348,
      "_reported": 8349,
      "adock": 8350,
      "_GB": 8351,
      "time": 8352,
      "titude": 8353,
      "iopent": 8354,
      "_parents": 8355,
      "_objects": 8356,
      "vulsions": 8357,
      "Weight": 8358,
      "ATION": 8359,
      "CV": 8360,
      "idym": 8361,
      "_incontinence": 8362,
      "_collecting": 8363,
      "_parasite": 8364,
      "_wat": 8365,
      "_managed": 8366,
      "_placental": 8367,
      "_genitalia": 8368,
      "_ophthalmic": 8369,
      "aee": 8370,
      "arone": 8371,
      "ifth": 8372,
      "_stimuli": 8373,
      "_book": 8374,
      "_improvement": 8375,
      "_fungi": 8376,
      "ophyll": 8377,
      "fect": 8378,
      "lymph": 8379,
      "_scarring": 8380,
      "_closely": 8381,
      "bab": 8382,
      "sec": 8383,
      "idol": 8384,
      "aple": 8385,
      "oxysmal": 8386,
      "_travel": 8387,
      "_carry": 8388,
      "tegrated": 8389,
      "_apparatus": 8390,
      "Has": 8391,
      "losis": 8392,
      "_living": 8393,
      "_believed": 8394,
      "undle": 8395,
      "_mole": 8396,
      "bfd": 8397,
      "_depth": 8398,
      "_brach": 8399,
      "IST": 8400,
      "_Recurrent": 8401,
      "iscus": 8402,
      "_neurologic": 8403,
      "_destroy": 8404,
      "Act": 8405,
      "_LDH": 8406,
      "_Negative": 8407,
      "_spondylitis": 8408,
      "lobulin": 8409,
      "_separate": 8410,
      "IAL": 8411,
      "_ie": 8412,
      "_motion": 8413,
      "_decade": 8414,
      "_hyperkalemia": 8415,
      "Chor": 8416,
      "_patches": 8417,
      "Atropine": 8418,
      "_Appro": 8419,
      "rotum": 8420,
      "Bet": 8421,
      "tran": 8422,
      "_congestive": 8423,
      "_Ery": 8424,
      "_implicated": 8425,
      "_pharmac": 8426,
      "ultaneous": 8427,
      "_lipids": 8428,
      "_phosphorylation": 8429,
      "_epigastric": 8430,
      "idelines": 8431,
      "oms": 8432,
      "_atten": 8433,
      "enger": 8434,
      "Scler": 8435,
      "_subunit": 8436,
      "han": 8437,
      "osides": 8438,
      "entan": 8439,
      "_var": 8440,
      "endal": 8441,
      "bdf": 8442,
      "_hemis": 8443,
      "_fibro": 8444,
      "_hypercal": 8445,
      "Acid": 8446,
      "_patterns": 8447,
      "Medullary": 8448,
      "iazide": 8449,
      "bea": 8450,
      "cript": 8451,
      "ek": 8452,
      "_bot": 8453,
      "aplastic": 8454,
      "uresis": 8455,
      "ambut": 8456,
      "Toxic": 8457,
      "_suitable": 8458,
      "atosus": 8459,
      "thing": 8460,
      "_hot": 8461,
      "_HCO": 8462,
      "_park": 8463,
      "_worker": 8464,
      "itz": 8465,
      "apes": 8466,
      "_Vit": 8467,
      "poses": 8468,
      "_dioxide": 8469,
      "_carriers": 8470,
      "_identification": 8471,
      "otropin": 8472,
      "Intravenous": 8473,
      "Epidemiology": 8474,
      "Disease": 8475,
      "_norm": 8476,
      "_Dig": 8477,
      "_National": 8478,
      "_FOR": 8479,
      "lines": 8480,
      "associated": 8481,
      "oflurane": 8482,
      "ields": 8483,
      "_MEDICAL": 8484,
      "_MEDICINE": 8485,
      "fef": 8486,
      "iscellaneous": 8487,
      "iage": 8488,
      "aryten": 8489,
      "_alb": 8490,
      "bfc": 8491,
      "ovascular": 8492,
      "_outflow": 8493,
      "_remove": 8494,
      "gut": 8495,
      "onade": 8496,
      "aturia": 8497,
      "olgi": 8498,
      "_neonates": 8499,
      "lexor": 8500,
      "_compliance": 8501,
      "ectoralis": 8502,
      "uck": 8503,
      "_SR": 8504,
      "_attrib": 8505,
      "_GABA": 8506,
      "ramnios": 8507,
      "itorum": 8508,
      "Plac": 8509,
      "_aldosterone": 8510,
      "posure": 8511,
      "_modification": 8512,
      "_responses": 8513,
      "oxycycline": 8514,
      "Management": 8515,
      "iopentone": 8516,
      "MN": 8517,
      "bing": 8518,
      "uer": 8519,
      "isplatin": 8520,
      "atter": 8521,
      "_staed": 8522,
      "azone": 8523,
      "_fails": 8524,
      "_variation": 8525,
      "_introduced": 8526,
      "Good": 8527,
      "iologic": 8528,
      "ulence": 8529,
      "urv": 8530,
      "_expiration": 8531,
      "udendal": 8532,
      "_appetite": 8533,
      "timulation": 8534,
      "_anteriorly": 8535,
      "_acetylcholine": 8536,
      "Cystic": 8537,
      "PO": 8538,
      "UN": 8539,
      "gm": 8540,
      "uretic": 8541,
      "_antipsych": 8542,
      "_extending": 8543,
      "_Stud": 8544,
      "tigo": 8545,
      "_neurotransmit": 8546,
      "_clav": 8547,
      "_treating": 8548,
      "Features": 8549,
      "_services": 8550,
      "jugated": 8551,
      "Lev": 8552,
      "comp": 8553,
      "fil": 8554,
      "ument": 8555,
      "_gra": 8556,
      "_SS": 8557,
      "_hyperg": 8558,
      "oices": 8559,
      "_polypeptide": 8560,
      "_girls": 8561,
      "Specific": 8562,
      "sAg": 8563,
      "_fundus": 8564,
      "_situation": 8565,
      "uled": 8566,
      "cemic": 8567,
      "_Kidney": 8568,
      "tivation": 8569,
      "_pneumothorax": 8570,
      "_masses": 8571,
      "ambutol": 8572,
      "_principles": 8573,
      "acf": 8574,
      "_gout": 8575,
      "exp": 8576,
      "bdb": 8577,
      "ails": 8578,
      "ervoir": 8579,
      "Prim": 8580,
      "Rapid": 8581,
      "pm": 8582,
      "_codon": 8583,
      "_ske": 8584,
      "_PL": 8585,
      "_Brown": 8586,
      "_prefer": 8587,
      "_preterm": 8588,
      "_blunt": 8589,
      "ofol": 8590,
      "hydroxy": 8591,
      "Absence": 8592,
      "ica": 8593,
      "_Mild": 8594,
      "_staging": 8595,
      "illed": 8596,
      "timal": 8597,
      "_catechol": 8598,
      "_malignancies": 8599,
      "_unconscious": 8600,
      "_pylori": 8601,
      "Candida": 8602,
      "otracheal": 8603,
      "icide": 8604,
      "_PE": 8605,
      "_Gray": 8606,
      "oblasts": 8607,
      "_Any": 8608,
      "_Used": 8609,
      "coun": 8610,
      "_growing": 8611,
      "_thyroiditis": 8612,
      "_prur": 8613,
      "_curv": 8614,
      "_eruption": 8615,
      "HPV": 8616,
      "vular": 8617,
      "_sides": 8618,
      "_Crohn": 8619,
      "orsion": 8620,
      "_support": 8621,
      "adiol": 8622,
      "_Examination": 8623,
      "_Tract": 8624,
      "_accounts": 8625,
      "Lact": 8626,
      "baa": 8627,
      "anese": 8628,
      "_lute": 8629,
      "_Rare": 8630,
      "elly": 8631,
      "_balance": 8632,
      "_window": 8633,
      "GR": 8634,
      "KD": 8635,
      "SM": 8636,
      "Water": 8637,
      "rend": 8638,
      "atent": 8639,
      "acral": 8640,
      "amil": 8641,
      "_Fl": 8642,
      "_arms": 8643,
      "_constipation": 8644,
      "_smok": 8645,
      "Metast": 8646,
      "_relaxant": 8647,
      "_Among": 8648,
      "_seb": 8649,
      "ectin": 8650,
      "perm": 8651,
      "ystrophy": 8652,
      "_immunosupp": 8653,
      "_dysphagia": 8654,
      "Heart": 8655,
      "_aph": 8656,
      "enile": 8657,
      "_pure": 8658,
      "_fasting": 8659,
      "_Cyst": 8660,
      "key": 8661,
      "_plays": 8662,
      "TIC": 8663,
      "_exclusive": 8664,
      "_steps": 8665,
      "_stools": 8666,
      "_attempt": 8667,
      "iprofloxacin": 8668,
      "_soci": 8669,
      "ucine": 8670,
      "_Kap": 8671,
      "_Angi": 8672,
      "bfa": 8673,
      "leton": 8674,
      "_papules": 8675,
      "_pyloric": 8676,
      "_gangrene": 8677,
      "_oedema": 8678,
      "entery": 8679,
      "acb": 8680,
      "_septic": 8681,
      "_histamine": 8682,
      "_stimulated": 8683,
      "_Herpes": 8684,
      "_demonstrates": 8685,
      "_reproductive": 8686,
      "thmia": 8687,
      "apez": 8688,
      "_intrauterine": 8689,
      "_twice": 8690,
      "_gradually": 8691,
      "_concerned": 8692,
      "_hypercalcemia": 8693,
      "Circ": 8694,
      "from": 8695,
      "itant": 8696,
      "_Ves": 8697,
      "copy": 8698,
      "_plasm": 8699,
      "_dermat": 8700,
      "_investigations": 8701,
      "_surrounded": 8702,
      "_account": 8703,
      "_streptococcal": 8704,
      "_trials": 8705,
      "_intoxication": 8706,
      "FMGE": 8707,
      "aad": 8708,
      "ault": 8709,
      "_nutr": 8710,
      "igella": 8711,
      "_greatest": 8712,
      "_zoster": 8713,
      "Haematology": 8714,
      "chrom": 8715,
      "_Each": 8716,
      "arding": 8717,
      "_metacarp": 8718,
      "arietal": 8719,
      "IgM": 8720,
      "Cef": 8721,
      "baf": 8722,
      "ratus": 8723,
      "_tamp": 8724,
      "_find": 8725,
      "lol": 8726,
      "generative": 8727,
      "_pred": 8728,
      "after": 8729,
      "_testes": 8730,
      "_interest": 8731,
      "_WBC": 8732,
      "zation": 8733,
      "till": 8734,
      "oring": 8735,
      "osm": 8736,
      "_Sex": 8737,
      "aminase": 8738,
      "_synopsis": 8739,
      "_nodular": 8740,
      "ospasm": 8741,
      "_digitorum": 8742,
      "_perineal": 8743,
      "_secretory": 8744,
      "Nas": 8745,
      "nRH": 8746,
      "usual": 8747,
      "olid": 8748,
      "_Cervical": 8749,
      "rophoresis": 8750,
      "_remember": 8751,
      "_precursor": 8752,
      "_hab": 8753,
      "_Plasma": 8754,
      "bfe": 8755,
      "_ovaries": 8756,
      "tracurium": 8757,
      "oscope": 8758,
      "_breakdown": 8759,
      "_ideal": 8760,
      "Rifampicin": 8761,
      "anic": 8762,
      "_dye": 8763,
      "_fresh": 8764,
      "_Pap": 8765,
      "ague": 8766,
      "_ridge": 8767,
      "angerous": 8768,
      "aret": 8769,
      "ulos": 8770,
      "_serous": 8771,
      "_sinusitis": 8772,
      "_hypeh": 8773,
      "Atrial": 8774,
      "calc": 8775,
      "eri": 8776,
      "ilt": 8777,
      "_Microscop": 8778,
      "_para": 8779,
      "_remn": 8780,
      "_IgE": 8781,
      "AST": 8782,
      "_Reddy": 8783,
      "optysis": 8784,
      "aglandin": 8785,
      "_ethmoidal": 8786,
      "_anastomosis": 8787,
      "treated": 8788,
      "_tree": 8789,
      "_pack": 8790,
      "_alle": 8791,
      "Occurs": 8792,
      "_Tuberculosis": 8793,
      "_glycoprotein": 8794,
      "aised": 8795,
      "_tight": 8796,
      "_ped": 8797,
      "_falciparum": 8798,
      "actone": 8799,
      "oxazole": 8800,
      "_maint": 8801,
      "ishman": 8802,
      "ommod": 8803,
      "_chlorine": 8804,
      "_BDC": 8805,
      "aaf": 8806,
      "fdf": 8807,
      "chond": 8808,
      "plenic": 8809,
      "_Local": 8810,
      "Invol": 8811,
      "_translocation": 8812,
      "rowning": 8813,
      "_endogenous": 8814,
      "adily": 8815,
      "_accident": 8816,
      "_angio": 8817,
      "_keep": 8818,
      "_cytokines": 8819,
      "Hel": 8820,
      "Pancreatic": 8821,
      "_continued": 8822,
      "_portal": 8823,
      "_dentin": 8824,
      "+-": 8825,
      "bl": 8826,
      "fo": 8827,
      "go": 8828,
      "erty": 8829,
      "_pole": 8830,
      "cef": 8831,
      "_Clo": 8832,
      "utrop": 8833,
      "Angi": 8834,
      "_Failure": 8835,
      "_periods": 8836,
      "_beginning": 8837,
      "cde": 8838,
      "des": 8839,
      "vi": 8840,
      "inin": 8841,
      "_la": 8842,
      "_varies": 8843,
      "_generated": 8844,
      "_overall": 8845,
      "_metabolite": 8846,
      "_sterilization": 8847,
      "_resting": 8848,
      "ochromic": 8849,
      "_estimated": 8850,
      "non": 8851,
      "oves": 8852,
      "_cre": 8853,
      "_burs": 8854,
      "idor": 8855,
      "izz": 8856,
      "_neoplasms": 8857,
      "_hemian": 8858,
      "_indications": 8859,
      "_tympani": 8860,
      "omatostatin": 8861,
      "_eventually": 8862,
      "ept": 8863,
      "_tunnel": 8864,
      "_font": 8865,
      "_warm": 8866,
      "_Sulf": 8867,
      "others": 8868,
      "_Alcohol": 8869,
      "_vertical": 8870,
      "ochromatosis": 8871,
      "_Hepat": 8872,
      "_eggs": 8873,
      "_tricuspid": 8874,
      "arbiturates": 8875,
      "part": 8876,
      "_aqueous": 8877,
      "_converted": 8878,
      "toid": 8879,
      "icotin": 8880,
      "idia": 8881,
      "_Pediatrics": 8882,
      "_Sal": 8883,
      "_Gland": 8884,
      "_malformations": 8885,
      "_clean": 8886,
      "_osmotic": 8887,
      "thylene": 8888,
      "Basal": 8889,
      "dcf": 8890,
      "eu": 8891,
      "vulus": 8892,
      "_cocc": 8893,
      "idae": 8894,
      "_Ple": 8895,
      "ubility": 8896,
      "_Alzheimer": 8897,
      "_Medial": 8898,
      "Disorders": 8899,
      "Pseudomonas": 8900,
      "olipids": 8901,
      "Az": 8902,
      "fcc": 8903,
      "hr": 8904,
      "_surg": 8905,
      "osyl": 8906,
      "_glo": 8907,
      "ables": 8908,
      "Retin": 8909,
      "Multi": 8910,
      "_sul": 8911,
      "acerb": 8912,
      "uron": 8913,
      "_OCP": 8914,
      "rupt": 8915,
      "iodarone": 8916,
      "Men": 8917,
      "_citrate": 8918,
      "_ho": 8919,
      "_hyg": 8920,
      "oxetine": 8921,
      "_express": 8922,
      "_receives": 8923,
      "_follicle": 8924,
      "_arrhythmias": 8925,
      "rete": 8926,
      "ano": 8927,
      "_hysterectomy": 8928,
      "_Ve": 8929,
      "IDs": 8930,
      "_separation": 8931,
      "_incisor": 8932,
      "Yellow": 8933,
      "_warfarin": 8934,
      "trast": 8935,
      "_Such": 8936,
      "_held": 8937,
      "_Factor": 8938,
      "_Joh": 8939,
      "_initiated": 8940,
      "uvant": 8941,
      "_public": 8942,
      "_drops": 8943,
      "_mediastinal": 8944,
      "isone": 8945,
      "tick": 8946,
      "_Py": 8947,
      "_love": 8948,
      "_malabsorption": 8949,
      "istrib": 8950,
      "_pathogenesis": 8951,
      "_axial": 8952,
      "_hallmark": 8953,
      "insonism": 8954,
      "VT": 8955,
      "dcc": 8956,
      "ingh": 8957,
      "ullous": 8958,
      "octur": 8959,
      "_cholec": 8960,
      "_Direct": 8961,
      "_Lo": 8962,
      "_vestibular": 8963,
      "_ulcerative": 8964,
      "Amp": 8965,
      "anthine": 8966,
      "_Americ": 8967,
      "Spinal": 8968,
      "_aneurysms": 8969,
      "raspin": 8970,
      "_PTH": 8971,
      "_Basis": 8972,
      "_constriction": 8973,
      "_oxidative": 8974,
      "_strongly": 8975,
      "_condyle": 8976,
      "_unique": 8977,
      "octurnal": 8978,
      "cff": 8979,
      "_Ma": 8980,
      "_stature": 8981,
      "_delusion": 8982,
      "lusal": 8983,
      "Mandibular": 8984,
      "Over": 8985,
      "cdf": 8986,
      "_mar": 8987,
      "_fish": 8988,
      "_reabs": 8989,
      "_folic": 8990,
      "_impulse": 8991,
      "_irreversible": 8992,
      "ulses": 8993,
      "ulsive": 8994,
      "_distributed": 8995,
      "_residues": 8996,
      "_runs": 8997,
      "_Goodman": 8998,
      "strocyt": 8999,
      "Due": 9000,
      "pret": 9001,
      "_Hyd": 9002,
      "arged": 9003,
      "_prolactin": 9004,
      "_Increase": 9005,
      "_protective": 9006,
      "_Barrett": 9007,
      "immun": 9008,
      "_feeling": 9009,
      "_intraocular": 9010,
      "_poorly": 9011,
      "_key": 9012,
      "_inseion": 9013,
      "Air": 9014,
      "_horn": 9015,
      "umes": 9016,
      "_asked": 9017,
      "_Ophthalmology": 9018,
      "uteus": 9019,
      "oproteins": 9020,
      "_markedly": 9021,
      "aurasia": 9022,
      "losporine": 9023,
      "CN": 9024,
      "dff": 9025,
      "_aim": 9026,
      "onus": 9027,
      "_pron": 9028,
      "icial": 9029,
      "_byp": 9030,
      "_therm": 9031,
      "Pharmac": 9032,
      "Active": 9033,
      "ocardi": 9034,
      "adenoma": 9035,
      "xone": 9036,
      "osition": 9037,
      "oppler": 9038,
      "_formula": 9039,
      "Bacteriology": 9040,
      "_imperfect": 9041,
      "imens": 9042,
      "_Gil": 9043,
      "istaxis": 9044,
      "ducted": 9045,
      "_Complications": 9046,
      "_numbers": 9047,
      "_cerebellum": 9048,
      "Environment": 9049,
      "_anatomical": 9050,
      "cents": 9051,
      "utive": 9052,
      "_war": 9053,
      "_larv": 9054,
      "_Beh": 9055,
      "othyroid": 9056,
      "_circumference": 9057,
      "_Autosomal": 9058,
      "isolone": 9059,
      "RUE": 9060,
      "_ros": 9061,
      "onol": 9062,
      "static": 9063,
      "_casts": 9064,
      "Urine": 9065,
      "aae": 9066,
      "eec": 9067,
      "fab": 9068,
      "unning": 9069,
      "emias": 9070,
      "_Mental": 9071,
      "_Harrisons": 9072,
      "_hypokalemia": 9073,
      "_gluteal": 9074,
      "ifications": 9075,
      "lammation": 9076,
      "eckel": 9077,
      "_refractory": 9078,
      "Psych": 9079,
      "acu": 9080,
      "_specifically": 9081,
      "_doesn": 9082,
      "aphylococci": 9083,
      "_trigger": 9084,
      "BI": 9085,
      "Bar": 9086,
      "cad": 9087,
      "hans": 9088,
      "right": 9089,
      "yrin": 9090,
      "_Sw": 9091,
      "_orth": 9092,
      "ensation": 9093,
      "weight": 9094,
      "_meningeal": 9095,
      "ussus": 9096,
      "raspinatus": 9097,
      "Distal": 9098,
      "Surgical": 9099,
      "_iv": 9100,
      "_cram": 9101,
      "_pills": 9102,
      "_spind": 9103,
      "ignocaine": 9104,
      "_lying": 9105,
      "_leukocytes": 9106,
      "_electrical": 9107,
      "dcd": 9108,
      "ho": 9109,
      "nisolone": 9110,
      "zes": 9111,
      "_pediatric": 9112,
      "antit": 9113,
      "cee": 9114,
      "_Second": 9115,
      "_Rx": 9116,
      "_pathogn": 9117,
      "ventional": 9118,
      "_rhinitis": 9119,
      "ocoicoid": 9120,
      "Lichen": 9121,
      "_fro": 9122,
      "izumab": 9123,
      "_peptid": 9124,
      "AM": 9125,
      "ATP": 9126,
      "Tox": 9127,
      "wee": 9128,
      "_cult": 9129,
      "anded": 9130,
      "_hypov": 9131,
      "_segmental": 9132,
      "_triglycer": 9133,
      "_ferritin": 9134,
      "_contraception": 9135,
      "_morning": 9136,
      "ita": 9137,
      "econium": 9138,
      "_Ax": 9139,
      "_immunocomp": 9140,
      "_bullet": 9141,
      "Hereditary": 9142,
      "_liquid": 9143,
      "_cholecystectomy": 9144,
      "\",": 9145,
      "AV": 9146,
      "_cuff": 9147,
      "utation": 9148,
      "ops": 9149,
      "_Following": 9150,
      "_fibroid": 9151,
      "_discom": 9152,
      "appropriate": 9153,
      "_lymphatics": 9154,
      "MER": 9155,
      "_gait": 9156,
      "_transformation": 9157,
      "_bru": 9158,
      "_zinc": 9159,
      "ISA": 9160,
      "TE": 9161,
      "vus": 9162,
      "wari": 9163,
[...]
